<bos>
<eos>
<pad>
a
pair
of
red
-
crowned
cranes
have
stake
##d
out
their
nesting
territory
crows
had
come
to
nest
on
our
roof
as
if
they
for
l
##ham
##o
.
couple
boys
driving
around
in
daddy
'
s
car
nine
##s
?
you
pushed
with
fighting
two
against
one
is
never
ideal
,
it
neat
walker
burton
de
##uce
the
winner
five
yeah
not
greatest
odds
an
incredibly
emotional
fight
between
2
sisters
？
500
america
brother
and
sister
darling
administering
lethal
ap
##hr
##od
##isi
##ac
satisfy
desires
what
who
buddy
i
don
t
know
!
fuck
does
that
mean
into
convincing
married
bunch
fell
##as
sitting
middle
this
field
about
rich
town
##house
corn
fed
football
loving
methodist
russian
mortar
crates
look
like
american
rifles
nan
ass
scoop
butter
pe
##can
ice
cream
dynamic
duo
will
seal
deal
tonight
star
crossed
lovers
or
better
off
just
friends
east
side
pseudo
lesbian
went
republican
dinner
proof
fake
healthy
kidney
open
market
worth
50
grand
last
seen
dead
husband
fools
over
heads
go
stealing
magic
fine
young
people
starting
road
life
successful
relationship
fear
child
think
we
should
back
fishermen
found
him
washed
up
beach
ah
wu
##sse
kids
fishing
poles
coe
##ds
siblings
adult
when
search
vessel
won
find
them
brothers
done
bad
things
amazing
how
cold
blooded
murders
can
decided
separate
tough
monkeys
renowned
synchronized
swimming
blue
balls
rocks
compounds
single
mother
daughter
binary
yellow
lap
##is
gold
twin
girls
hooker
ali
##bis
twins
played
so
nicely
while
waited
parents
get
home
40
something
roommate
right
now
got
all
dim
##ples
couldn
be
more
mis
##mat
##ched
m
gonna
guess
guy
loaded
identical
gay
has
complained
dad
wants
adopt
crack
baby
willing
along
adoption
under
##achi
##ever
take
taken
by
lovely
no
own
puzzles
drug
crazy
mania
##cs
teenagers
##nica
##ting
liverpool
basement
dump
##ster
divers
members
gene
se
##gre
##gate
game
##tes
nice
juicy
boar
here
big
college
were
there
water
man
woman
clearly
made
each
other
wives
wife
74
77
years
old
really
ones
do
times
year
residents
una
##cco
##unt
##ed
put
rot
##t
##weiler
down
because
ant
##elo
##pe
large
family
male
female
di
##sl
##oca
##ted
leg
ga
##by
carlos
discovered
secret
murdered
at
sleeping
shot
death
house
couples
freely
dance
together
apple
tree
temptation
bag
##pipe
lost
son
would
begin
hate
called
911
body
street
was
night
team
are
through
next
round
hardly
allowed
moment
alone
drowning
witnesses
saw
tall
white
vehicle
leave
scene
blu
##dge
##oned
make
burned
folks
themselves
cops
always
seem
start
first
going
ib
##iza
managed
screw
age
marriage
men
share
bedroom
every
walking
your
mom
expecting
heard
but
didn
see
##ail
##ant
paid
check
wow
coming
plastic
surgery
reversed
died
crash
suspect
good
bride
groom
re
survived
event
##ful
lived
coup
##ie
care
wo
##rid
max
safe
bottom
three
way
she
totally
comes
from
hospital
kid
looks
vest
working
stolen
clothing
belonging
lack
warmth
offer
tribute
enough
awkward
giant
upside
tornado
teen
14
headed
very
stretch
courageous
buried
same
coffin
cl
##ea
##ved
terror
meet
ball
left
camp
fish
river
then
disappeared
happy
visiting
museum
came
superhuman
powers
lucky
fellows
girl
elongated
canine
atv
remains
party
bandits
twenty
strong
charging
ravine
full
speed
hike
##rs
morning
love
true
soul
mates
minutes
$
49
95
wyoming
sc
##orne
spouse
freaks
freak
weird
##os
why
running
paris
walk
en
##tails
piece
cake
finding
embrace
curb
her
boyfriend
jack
central
park
killed
bu
##rg
##lary
funny
shorter
than
enjoys
ups
##wing
holding
hands
cap
parked
approaching
sidewalk
trying
6
month
alfa
##shi
##r
sudan
wanted
italian
boots
##ss
##uming
became
latest
media
grabbing
cases
penis
grown
sexy
sell
15
dollars
il
double
money
my
earrings
o
##oh
galaxies
twisted
torn
gravitational
act
master
slave
these
living
flat
putting
dreadful
fridge
enemy
ship
horizon
pie
king
##fish
##ers
getting
gets
60
70
some
newly
##wed
he
said
new
##bies
jersey
finest
walked
either
us
helpless
father
grandparents
clue
##less
even
realize
pregnant
formerly
dating
season
black
jerk
fly
private
jet
where
adopted
poor
trash
gen
##ital
local
thugs
practically
anything
sides
##how
acts
iowa
spider
broadway
lu
##mina
##ries
gunslinger
honeymoon
##ing
normal
:
45
armed
unit
escorting
cash
box
coins
meets
yankee
ambush
maternal
match
someone
tried
##jack
anti
cyclone
raged
centuries
forever
dogs
run
##ny
noses
nobody
loves
dumb
shows
hurt
anybody
without
children
lacks
binding
ties
childless
supposedly
owned
french
bea
##dy
eyes
looking
me
eat
both
plaster
cafe
bum
blonde
haired
dark
warm
connected
pretty
ladies
trained
assassins
beautiful
chasing
dream
metal
animal
rights
activists
beef
lights
chair
fabric
whole
##some
spiritual
##ly
wealthy
damaged
goods
seems
grim
after
fried
eggs
bear
claws
please
set
irish
actual
grade
apart
paternal
before
turn
abducted
parking
lot
gun
##point
greeted
inside
kitchen
brick
##layer
arguing
apparent
overdose
front
quoted
photo
journey
special
day
nu
nut
##ty
cheating
##ero
##us
poisoned
phone
announcer
cunning
robbed
kings
kind
wins
queens
win
penn
##ies
usually
kisses
entered
shop
west
virginia
siam
##ese
maybe
quarters
intimate
yet
vis
##cera
##l
ne
##uro
##tics
another
divorced
stuck
during
windows
uh
control
cleaning
da
##ft
bug
##gers
screwed
tight
little
bun
caught
eye
nervous
shared
kiss
radio
song
divorce
vows
jedi
gone
rogue
alexandria
tourists
buy
paper
knives
reported
13
missing
older
took
picture
could
safety
deposit
bank
sold
used
sneakers
elderly
outskirts
raised
ago
late
60s
mice
fat
per
##vert
losers
light
show
renegade
avatar
d
##cast
hiding
breeding
sal
##ami
few
kiel
##bas
package
franks
heroes
sapphire
cried
days
snake
hive
harry
let
fun
bees
bee
yesterday
naked
brutally
hip
##pie
gave
brown
fetch
000
his
hers
goddamn
elephants
damn
fitting
crystal
ho
##yle
##and
buck
winters
description
hung
till
closing
time
foot
six
##umb
##ags
guys
isn
those
neighbors
helping
wild
feud
strangers
contact
lenses
fifteen
qui
bonnie
clyde
types
casino
employee
upstairs
snow
leopard
stalking
soon
arrive
must
claim
patch
beers
real
close
reason
talk
available
top
line
breast
implant
matching
throwing
daggers
birds
bird
##birds
fr
lick
inter
##rac
##ial
17
34
letter
british
parliament
card
sent
sweden
18
reached
its
destination
ll
write
written
mail
exquisite
vague
giving
ownership
account
wrote
santa
claus
boy
madam
received
sort
call
stop
winning
war
silence
did
tell
hungary
need
apartment
name
envelope
scrap
stuff
proved
end
hunger
brought
earth
difference
court
suggest
october
20th
ie
##tter
yes
want
signed
value
arrived
containing
strange
inquiry
whom
ag
##ron
##omi
##st
clerk
wedding
everything
intercourse
motivation
luck
urgent
registered
cease
des
##ist
notice
which
well
blackmail
necklace
teeth
anonymous
tip
warrant
dozen
armor
bye
coded
address
prison
chan
##cy
christian
coalition
bio
##eth
##ics
charlotte
##sei
##f
miss
sham
20
e
infected
worm
bore
forced
clean
obscene
terrible
imp
##ulsive
appreciation
ve
been
rather
res
##ent
complaint
form
larry
recommendation
yale
behalf
okay
clark
problem
changing
stepmother
steps
##ister
asking
sponge
sending
lawyer
ep
##istle
non
canonical
proper
thank
note
un
##sen
confidential
hamilton
post
##card
passionate
abandoned
ina
##mora
##ta
ireland
acquaintance
chicago
office
stranger
sar
##dis
given
pope
cannot
authentic
##ated
glowing
forged
emerson
smug
##gled
egyptian
artifacts
science
teacher
telegram
bearing
words
news
email
178
certified
requesting
being
directly
heart
##felt
short
say
mysterious
personal
sign
simple
pointless
peck
##er
pills
myself
sarah
lucy
nicholas
st
agnes
message
reverend
austen
press
friend
commendation
record
regarding
positive
experience
touch
voice
invitation
word
caution
gotten
apology
snaps
##hot
bra
lines
fragment
letters
hears
##e
near
blockade
direction
holland
die
##p
kills
thirst
;
worms
general
highness
42
pound
corona
##do
buddha
terra
##cott
##a
figure
loose
cannon
statue
bleed
miraculous
holy
relic
france
magnificent
colorful
perfect
altar
bite
sizes
quick
small
cluster
nerves
person
second
hopefully
dunn
long
seconds
eternity
minute
wait
ii
help
yourself
wine
only
ion
##g
weeks
again
smallest
amount
trigger
respiratory
failure
doses
smooth
##es
wr
##inkles
##ni
ai
##i
spot
seven
tin
##iest
sweets
mit
，
ni
##bble
sip
radioactive
puddle
mouthful
drag
hit
much
shit
feel
takes
w
##hiff
bar
##maid
apron
singing
sailor
champ
edge
slight
turbulence
##ish
circle
everybody
pieces
tiny
drop
##kel
##eto
##n
bit
chunk
history
forgotten
alter
land
feed
animals
singapore
zoo
lump
met
##ph
##eta
##mine
peg
##ter
power
entire
city
access
##tti
area
brains
garlic
pa
##pr
##ika
linger
slip
spend
rest
slice
chocolate
broke
vein
blocked
blood
flow
lungs
harmless
pocket
shall
ce
##ns
##ure
corruption
petite
cut
moon
recreated
skin
tag
nothing
worry
flank
brain
seemed
waste
breaks
travels
cheese
##cake
cr
##eme
br
##ule
##ot
lodged
itself
artery
chip
paint
bone
sha
##ving
b
##lo
##bs
muscle
stacks
resemblance
stole
pack
gum
bo
##de
##ga
percentage
subjects
potential
exhibited
pictures
himself
bill
##iard
cue
weather
##man
talking
smile
mere
pinch
writhing
slug
group
burning
deaths
armenia
strand
human
hair
deep
underground
##ique
ambitious
dish
##ono
##rable
officers
pulled
hotel
drain
handful
perhaps
most
ruthless
parcel
career
##ists
h
heat
foil
##hale
fu
##mes
sniff
awesome
may
still
clinging
asia
##oli
##gan
choose
van
##dal
##ize
public
places
groups
branched
disciplined
militia
hold
larger
force
drive
band
flee
wind
1
hour
108
miles
10
washing
ten
bucks
12
75
plus
dental
instead
expect
conclusion
quarter
200
pick
51
300
send
best
style
hey
400
48
give
tips
8
benefits
eight
week
oh
several
um
concerned
100
hundred
mi
35
cent
less
within
named
ivan
door
showing
hours
four
inches
rain
sound
eva
##cu
##ating
thousand
poking
idiots
shift
troops
position
until
cop
##ulate
ask
beer
room
try
doctors
vienna
results
completely
invisible
making
arrests
##in
catch
bus
route
understand
world
track
footage
desk
statements
everyone
dumping
hard
drives
votes
worrying
assembled
blizzard
blew
wits
weren
oven
clarence
york
richard
army
asleep
ben
##ef
##icia
##ry
services
burgundy
color
markets
opening
exactly
later
lose
bomb
interview
"
rolling
stone
lunch
reach
finally
place
conference
wheel
bitch
longer
pushing
figures
5
30
violet
kidnap
##per
supposed
chance
count
updates
literally
woke
due
fast
started
kill
sir
happened
finished
order
director
early
retirement
table
redwood
planning
hear
plane
resemble
fucking
rescued
gotta
em
pee
report
fully
kicked
honor
plan
meeting
rec
##on
##ven
del
##ibe
##rating
drew
station
smell
exchange
revolution
security
system
released
witness
protection
shut
rescue
operation
escort
handle
briefing
bets
might
doctor
appointment
hound
reporters
able
free
authority
wheels
leaves
jonas
charlie
already
ok
brilliant
suit
air
monica
airport
doesn
earliest
graves
sun
##pers
names
hand
deployed
necessary
village
##hear
##sing
dates
identity
meat
miami
ta
##ct
ops
site
flooded
chancellor
##rea
##cha
##ble
target
release
weapon
sure
capitol
san
gala
secured
motel
landing
jakarta
launch
##washed
constituent
assembly
vote
issue
update
today
list
helicopter
ready
abs
##oi
##ute
poison
am
returning
vulcan
flight
dc
resigning
victory
column
##op
ends
injured
governor
sources
##hun
eclipse
happen
south
88
buses
forth
painter
rods
arriving
third
answer
possession
sandwich
story
half
washington
many
ha
##zing
explain
reasons
actions
device
operational
mind
chambers
hundreds
fifty
fall
chow
hole
developing
storm
somebody
talks
landed
j
f
k
outside
indian
jumped
onto
rail
subway
tracks
publishing
exploded
medical
company
headquarters
les
angels
zebra
closed
thru
##way
class
bought
ticket
evacuation
dropped
charges
regular
prisoners
backed
targeted
fired
sixth
attorney
shipment
chinese
delegation
##bat
##hing
po
deck
bound
texas
alive
backing
building
hell
attack
residence
fresno
p
files
##wood
laid
final
touches
ceremony
timing
notes
milk
shake
told
assaulted
ct
##u
personnel
thought
asked
almost
wolf
passed
away
promised
smoke
thug
mark
tom
##cats
scrambled
##ram
busted
##list
score
pronounced
herald
north
posted
internet
popular
board
accident
feeling
number
##wind
drove
ourselves
violence
rocked
drink
head
u
highway
shootout
library
acc
##ost
davis
intended
memphis
since
opened
swallow
los
angeles
bout
boss
wasn
watch
cleaned
fixed
checking
rig
##ging
mine
huh
school
assassinated
sweep
ended
shown
r
tablets
wandering
streets
baltimore
collapsed
manage
hook
sized
trout
ate
benjamin
ras
##pa
##il
moving
ec
##hel
intercepted
dean
placed
laurent
##au
eating
looked
contacted
refused
whatever
retaliation
alley
ran
scenario
agent
lee
county
awake
spoke
state
department
cousin
talked
ordered
emergency
suggested
menu
technically
tour
store
n
driveway
henry
si
##lu
##rian
scorpion
known
holiday
resort
telling
delivered
offered
glass
resigned
cook
switzerland
figured
amanda
tray
vanished
needed
usual
nowhere
bon
study
anton
briggs
metro
fa
##x
102
manhattan
phones
sequential
serial
numbers
activated
spotted
convenience
far
##tee
’
resident
bring
steve
police
cruiser
rolled
hadn
na
##cho
low
fuel
truck
struck
rack
explosion
bridge
controls
work
canvas
crew
vendor
confessed
practice
fay
mel
##lowe
programmed
secure
emptied
##y
porch
shirt
horrible
quiet
coma
yahoo
reporter
marina
dignitaries
eighteen
hem
##or
##rh
##oid
16
blocks
##mit
##igate
torture
dempsey
joint
break
happening
turning
goes
22
forecast
##hole
window
floor
hopkins
departing
beethoven
hall
shoot
forget
thing
option
point
survival
greatly
decrease
key
confident
dublin
oaks
having
buyer
ocean
hungry
moaning
wake
pitch
campaign
embassy
doing
books
raid
pain
possibly
imagine
shooting
tv
spots
change
rounds
wanna
sports
illustrated
promise
idle
moved
supervisor
calling
stand
grab
supper
carousel
regret
gut
rectory
move
wrap
mor
##gue
bunker
row
main
client
condition
##bri
location
sends
spirited
christmas
cards
diner
beat
downtown
traffic
mm
hmm
enjoy
careful
any
questions
santiago
beside
council
chamber
understood
harriet
lane
wards
blacks
boardwalk
tactical
professor
scheduled
bali
blind
institute
energy
panda
bay
repair
rendezvous
union
entrance
dev
agency
loft
food
tai
##k
ia
##ai
##iy
fai
pac
spiked
fever
showed
taxes
trade
banquet
initiate
massive
nuclear
cu
##rf
##ew
det
##onate
filled
`
runs
battery
##llo
##cks
throw
border
rules
book
signing
lives
polls
vice
million
contest
commence
limit
th
president
hostage
follow
instructions
lesson
decide
continue
below
zero
church
pier
##ots
yours
lead
driver
whore
chelsea
che
##ise
progress
arabian
nights
fantasy
bail
leaving
solved
##sol
##vable
friendship
##qua
##tl
colors
face
lion
major
ip
picked
straight
glued
toilet
stool
secretary
limo
taking
club
ballet
ideas
job
somehow
##id
date
strike
anatomy
commerce
prohibited
permits
consider
checked
remind
mandy
electricity
robot
pharmacy
rash
nearly
community
though
jeremy
keep
thanks
ioc
##ation
green
##king
setup
committee
corner
perform
judges
settlement
rick
diplomatic
text
business
behind
wear
flying
rob
##cut
csi
excavated
ro
##ld
rate
optimistic
rushed
great
months
roi
honey
babe
64
finish
speech
calls
90
wa
##kit
earn
cents
sooner
probably
occurred
coroner
lab
##log
##ged
wrought
rehearsal
fail
daylight
rosie
stay
gunshot
burn
classified
182
inspector
angel
cracking
whip
3
600
lt
butcher
goat
thousands
gallons
choking
louis
penthouse
hourly
checks
spa
treatment
exercise
likes
hydra
fix
crowded
glorious
attend
parenting
cia
says
shells
glory
beats
##ony
##mity
crap
tread
##mill
empty
easy
crime
murderer
wall
possible
thrash
intensity
wage
kidding
northernmost
play
page
earthquake
11
martin
sunshine
watering
triple
martini
prefer
coffee
whiskey
##ase
scotch
cheap
co
##gna
##c
lou
##sy
cup
gr
##av
pink
mint
tea
excuse
interested
sherry
tequila
reef
favors
sudden
moves
feels
complete
360
degree
spin
limp
harmony
music
video
clip
cha
least
columbus
part
tear
beginning
ar
##ouse
scratching
means
foam
pass
teens
closet
space
cocktail
neck
wee
sticking
salmon
tick
##les
##le
blade
goats
toast
golden
sl
##iver
soil
recently
disturbed
dug
blanket
portion
holds
riches
prince
pizza
brand
bait
god
sky
occasional
bags
mirror
inserted
ugly
clouds
vial
insulin
bottle
guinness
eyed
##rop
charge
sperm
##ici
##be
sho
##ud
horse
stable
student
alcohol
blow
restaurant
liquid
dragon
soap
packet
fair
ru
##pee
##isa
##mo
purchased
locke
bundle
pot
##pour
##ri
amounts
suspicious
ngo
micro
donations
operative
result
loan
stud
fee
tens
dust
penetrate
##rug
urban
snatch
requires
intelligence
para
##bolic
gunmen
scientists
sm
image
jobs
responsible
events
pod
pacific
dolphin
nose
encounter
whales
dr
convoy
leading
multi
troop
transport
sq
##ui
##rt
scissors
shoulder
dime
high
pouch
diamonds
##rad
##ivar
##ius
##sson
military
conflict
narrow
subset
population
digest
mill
##ig
modest
forces
acknowledge
stock
##holders
highly
concentrated
survivors
formed
elder
assume
poisonous
none
illegal
civilians
hawks
protest
##ors
breaking
crowds
bats
parties
plant
descendants
spanish
elite
pl
##under
nation
ci
##rc
##ums
##tan
##tial
shi
level
terrorists
status
##watch
repeat
garrison
soldiers
operatives
law
chain
command
copied
logged
committed
james
carried
rough
multiple
civilian
flesh
robots
breakfast
mike
teenage
geek
emerged
routine
shutter
whistle
sp
##ic
span
motto
tasting
flora
country
saying
interrupted
spade
chicken
lying
extra
dragging
stabbing
fugitive
victims
delicious
complicated
forest
ham
##at
sauce
whether
nico
##tine
considered
piss
bowl
9
bai
pool
corporate
volleyball
rosy
fingered
dawn
grease
une
##ar
##ned
inning
pops
##icle
sit
seat
lean
butt
ground
walls
layer
3d
drawing
sweeping
popping
blowing
layers
upon
onion
above
property
limits
coat
##co
lies
replace
tier
file
clear
stripped
burnt
fused
drill
flush
subject
strip
tower
secrecy
humor
digging
bedrock
outnumbered
encircled
surfaces
examined
lava
builds
rock
roll
coating
fresh
##fr
spread
poly
##than
sliding
units
feet
cottage
anywhere
matter
billion
stronger
steel
elevator
core
exits
covered
industrial
1st
disappears
series
tend
##ril
freezing
fog
hanging
garage
service
whitney
officials
pile
barley
amber
weed
cool
government
raising
tax
cover
spending
dirty
surrounded
household
absolutely
believe
sea
opportunity
entertain
standing
mann
heaven
spins
##ters
grandchildren
tags
buffet
slaves
computers
porn
dude
risks
quietly
capt
##ivated
speakers
underworld
killers
sounds
women
speaking
minds
corpses
important
sick
cancer
##mission
politicians
guns
##amo
##ring
designer
labels
bodies
junior
securities
senior
process
photos
mcdonald
executives
waiting
playing
toys
barrier
display
superior
schools
grain
sand
mountain
##top
neither
live
survives
slab
mate
relax
suns
sons
rattle
##na
##kes
purge
tigers
commander
dong
trophy
mr
bates
winners
grass
greene
fence
babies
haven
developed
immune
unknown
virtually
absorbing
creature
outer
huge
pressure
outlet
rapidly
approached
hovered
hope
humble
opinion
selfish
slap
thinking
flick
wrist
##osh
mayor
reminded
weddings
las
vegas
gods
##peed
sailing
sid
voyage
keel
selection
su
rides
boring
stories
com
##ma
wearing
vicinity
habit
passing
andes
region
frame
lasts
use
ld
images
impressions
happens
playback
range
##yp
##not
pull
camera
acting
freshmen
46
##ho
menacing
gang
breached
palace
egg
##heads
killing
exhibits
asiatic
rainbow
across
delaney
savage
reckless
minded
boat
hugging
kissing
cult
machine
trafficking
ambushed
billionaire
estate
containers
queer
wouldn
im
##ci
jock
woods
intellectual
g
##lor
##ified
sinn
pride
joker
##ele
bullshit
prick
communist
bastards
##rmin
aren
##uded
bleeding
patriots
mole
##sted
miserable
enslaved
##quet
mc
##gl
##oin
bash
abu
robe
grave
##ena
ancient
drugs
bid
##dies
pencil
push
accountants
navy
sergeant
hoping
lieutenant
ghetto
hoop
stars
pathetic
league
##quin
robbers
ex
##tort
##ion
bloody
crawling
roller
apprentice
bands
sack
houses
4
honest
punk
workers
knocked
captured
masked
students
##wi
##tting
unleashed
gu
##an
##ied
weak
##lings
lawyers
too
afraid
magazine
sued
sad
broken
letting
##gi
##ver
##ip
whoever
angry
sleep
goo
sneak
baseball
baptist
gangs
rapper
mo
pet
##rix
der
##osi
batch
contestants
amateurs
shame
commanders
lower
criminal
statistics
##uous
patient
physicist
signal
shifts
possess
weapons
mass
destruction
##bus
rival
trapped
outlaws
##rds
computer
wrapping
finger
courtyard
lynch
mob
vampires
trial
rehab
center
block
marines
asshole
desperate
##hi
##ve
ge
##rm
bacteria
action
suck
learning
taekwondo
stupid
vulture
uniformed
buff
##oons
fancy
dress
such
pu
##ssi
stuffing
faces
blond
crowd
##time
crashing
superb
##lok
con
damage
cause
ever
tim
network
##nts
puff
peacock
gambling
homes
graz
outfit
extreme
sport
fans
ultimate
silly
##all
##hm
##uck
faa
prepares
meal
midnight
##ruff
insurance
queen
remixed
##mp
##ous
asian
##beat
dancing
self
sacrifice
##ual
##azi
pre
select
lords
badges
evil
pr
##ats
drunk
bragg
clown
map
riders
cheyenne
buddies
national
addict
information
pretend
mess
sparrow
65
painting
portrait
leonardo
features
worse
ing
##eni
##ously
detailed
actually
painted
memory
genre
scenes
represent
daily
##ei
##cula
##ne
##um
mythological
panel
picasso
hello
also
included
century
buddhist
diagram
originals
traced
collector
munich
landscape
craters
cracks
basins
128
hang
##tel
hollow
pussy
wii
fresco
119
##0
scholars
speaks
velvet
nude
counter
mural
paying
obvious
sketch
cracked
case
damned
suffering
ji
##gs
##aw
enchanted
bow
total
elegance
particular
##gas
appearing
marvelous
##ica
##ture
skate
##board
abstraction
ac
##ryl
pan
correct
greek
renaissance
cartoon
“
wish
taller
”
appear
##sp
##eak
##able
carnage
expensive
gallery
madrid
bigger
begins
emerge
francis
sharp
1801
vision
future
jackson
pollock
oil
##ro
mon
##et
restored
lily
art
auction
tomorrow
detective
cat
modern
caused
reaction
selling
paintings
pop
bang
artist
cost
27
sum
parts
merely
vulgar
bears
royal
crest
float
##py
aspen
grove
contrast
relation
beauty
##med
lit
##hog
##raph
mu
##nch
skepticism
coherent
maya
iron
frog
brace
episode
plays
##gr
##oc
##ery
lists
drama
beaches
closer
##tera
##lly
jonathan
crying
once
treated
israeli
neighborhood
gas
complex
cabin
qu
##aint
##sby
villa
mediterranean
clothes
immortal
assault
teams
construction
acres
secluded
papers
kensington
divided
skyscraper
tank
connection
baths
built
20s
hampton
ferrari
garden
neglected
unhappy
super
reminds
transporting
surface
planet
##el
xii
med
##icated
##jar
structure
society
betrayed
trust
cheers
test
##ifies
square
meter
coral
sustain
dozens
species
ian
costs
average
##m
24
225
mile
radius
/
1200
phil
122
99
##8
tuition
92
tired
250
homicide
circus
280
28
payroll
boston
shine
329
351
36
##2
##lt
howling
wings
365
109
##5
sixty
forests
flourish
worn
shorts
likely
hunting
800
pounds
525
conventional
insect
##icides
dammit
81
altitude
twice
94
tops
become
brooding
seeing
anyone
kept
quest
beans
brooklyn
swallows
return
spring
annual
marathon
civil
##act
melt
##down
begun
lonely
peek
bi
##ann
tender
breath
onset
migration
kung
matches
basketball
sacred
pilgrimage
biggest
elect
##ive
governments
lincoln
derby
bullying
##uge
drunken
sailors
ribbon
prize
comfort
sugar
magnolia
fest
commemorates
festival
wasted
beverly
##eve
##ment
awards
feast
senses
blossom
viewing
race
prestigious
sporting
favored
##ua
mode
&
benefit
else
laugh
bones
busy
turns
##for
##giving
desert
meals
often
mosques
contract
manager
player
passion
pulls
bars
heavily
guarded
armored
##ling
hail
turned
terribly
##bility
winds
welcome
rake
struggles
extremely
successor
##year
question
swear
distance
plans
cave
pay
frozen
periods
rejected
##del
attacks
females
course
ignored
##pis
fellow
favorite
hockey
halloween
sales
dangerous
shopping
magical
dear
##est
scar
cheer
worst
wonderful
socially
acceptable
venus
trap
und
##ete
##cted
listen
##hine
##qual
##ifying
certain
##ox
waterfalls
skies
spent
europe
squid
que
##lea
nomadic
felt
everywhere
arctic
chinatown
heavenly
scarce
pasture
sire
english
countryside
obe
##se
notion
picking
chapter
specifically
missions
florida
visit
losing
##eptive
gamble
admit
booked
advance
shave
beard
assistant
pole
pension
firm
##ex
##ra
##bly
towards
performed
berlin
branching
mattress
pillows
casinos
latin
ships
revenue
education
deny
claims
missionaries
stage
bartender
idol
exist
defense
buying
##ib
mart
##re
##bell
trace
hills
screened
erratic
##ally
11th
2006
passes
males
##lia
##th
forgetting
member
ye
##h
##tre
##mist
guilty
executed
fire
restore
##name
##nt
stopped
writing
landfill
followed
ra
##ons
grow
reelection
thankfully
exact
rep
##ressed
memories
revenge
reflecting
mall
2009
marry
advice
greet
2000
childbirth
fame
beyond
borders
province
plague
collapses
circuit
factory
rei
##sner
covert
funding
dod
mont
##vale
ghost
dive
##sts
holdings
africa
citizens
afford
outcomes
bin
##al
80
surreal
mcleod
personally
phoenix
waitress
introduced
cooked
racing
mt
akin
solid
canning
##ree
amazon
bred
lip
gloss
320
##oth
period
wilkinson
japan
launched
##hini
##ng
##6
hearing
rumors
profile
mute
hr
##gar
agreed
##ub
prospect
appearance
yoga
appeared
web
sites
##phile
avila
returned
jungle
spain
##ali
##fies
film
election
maintain
wrong
birthday
oak
ny
herself
visits
kick
following
remembered
carnival
2002
tri
##athlon
consisting
cy
##cl
##ln
prank
rum
mexican
gunn
nsa
tracking
cai
entering
vacation
yard
bulls
novelty
fortune
##side
physical
fourth
gives
mini
golf
25
promotions
filing
bankruptcy
possibility
needing
increase
recognition
%
allow
others
prom
workshop
snowy
##ke
stomach
ul
##cer
reserves
championships
pleasure
craft
legal
fires
ridges
commitment
pages
significant
rates
dealers
##hips
fruit
orchards
surrounding
winter
mainly
clustered
award
seasons
mil
foreign
holidays
kinda
##to
##get
##her
anymore
ins
##tal
##ments
decorations
constant
traveling
ruse
ski
##ass
quarterly
profits
higher
movies
smart
entertaining
wave
approximately
threats
messy
lawsuit
ufo
mexico
arrangement
separated
fund
whose
transferred
gm
embark
pilot
project
leader
##lan
mask
##lov
raises
bumps
bankrupt
suffered
burns
54
mary
fixtures
robbery
colleague
parole
religion
transfer
pin
shattered
girlfriend
complaining
lie
port
raiders
license
revoked
mal
##actic
guerrilla
abandon
salvador
demo
##lish
valle
##jo
##sea
##led
cayman
islands
problems
bread
##lag
past
pairs
hired
gardener
stood
warehouse
gate
program
mental
stress
march
brig
pots
grid
charter
ik
doc
liked
smuggling
accountant
alan
ray
arrest
cars
sing
sexual
karachi
zodiac
except
tate
function
sponsored
scotland
！
arrested
miguel
el
vacant
abuse
maia
##ria
camps
malaria
rams
sol
##tation
##yard
prior
therapist
climbing
incident
headlining
attacked
diagnosed
sat
sub
##mic
##ros
##copic
size
michigan
ear
##ii
curtis
holiness
innocent
iii
prepared
sought
reject
escape
clinic
sorry
riding
bicycle
conceptual
##izing
cutting
blaze
publicity
remember
critics
code
fletcher
alias
installed
wire
knew
##uc
##ia
fruits
vegetables
##nte
##lli
##gence
reorganized
orders
despite
##ness
gig
associates
##dom
farm
intervention
germany
ave
##rted
stores
conversation
hill
saved
reagan
caps
lowest
performing
branch
knee
worked
eagle
auschwitz
answered
orange
surfer
byron
split
stabbed
hop
division
barbados
june
vogue
managing
kin
##kos
harold
questioned
ab
helped
newspaper
teach
uc
diego
dragons
involved
chose
intensely
partner
bureau
health
scare
volunteer
alternative
review
commission
german
patrol
conduct
assisted
taylor
goal
tricked
admitting
pig
fool
dumped
filed
situation
mum
kenny
griffin
interviewed
threw
invitations
seattle
rector
indicted
##phi
turner
cardinal
strasbourg
syrian
informant
forward
smashed
hong
kong
radical
bombed
principal
expelled
colon
rooms
##ch
ammonia
article
##com
##promising
skill
slaughtered
lo
##nn
hi
attempt
united
states
london
eve
convictions
april
9th
riot
badly
guards
mistake
reefs
visa
laps
miller
suicide
marks
catalog
escaped
magician
federal
grace
residency
dreamed
##rri
##bie
guest
ripped
cemetery
tulsa
seventeen
tons
moons
graduate
lam
somewhere
denied
serious
teamed
belly
int
##mont
##hs
championship
tracked
nursery
impressive
hasn
bathroom
cincinnati
vitamin
granted
tourist
eligible
hai
phd
slept
watching
undercover
investigation
suspended
animation
injury
generations
penny
shoe
boxes
companies
bed
creep
##pi
##rator
52
dinners
appears
bing
docks
percent
bloom
breeds
yo
##olio
##sis
dollar
##ams
designs
rings
using
tune
millions
adds
metric
dec
00
pm
fifteenth
trainer
stroke
recognized
cherry
catholics
swallowed
##nce
drying
qualified
transformed
pure
spirit
lady
promoting
agenda
swing
apply
termination
guardians
##hip
terminated
reappeared
lord
joan
qur
##ays
truce
attacking
muhammad
allies
diabetes
crippled
beloved
##urn
birthplace
survey
becomes
bullet
=
mortgage
stripes
trouble
employ
salon
##box
ragged
ann
mud
inch
cruising
ruby
vera
drown
tub
xiao
liang
##vera
gui
##ity
buchanan
swept
collision
##clops
began
shape
janet
stan
##ame
mount
maria
erupted
burying
invaders
beneath
parisian
fisherman
bel
##zers
dallas
policeman
suddenly
finds
palm
print
officially
declared
spacecraft
hu
##gens
probe
ahead
counted
occasion
rhythm
served
promptly
prompt
thou
domestic
arizona
fades
minneapolis
peace
##keepers
slightly
summer
hen
piano
fields
privacy
issues
##ism
copenhagen
decorate
fl
##ab
##weight
##ves
deeply
##tt
##ractive
wound
teaching
bump
rank
##tila
##tion
kidnapping
hunt
notorious
cheat
yelling
uniform
traveled
cell
paperwork
published
keeping
spoken
roughly
150
performances
including
cho
combined
probation
respect
transported
apples
sufficient
visited
save
shoots
distribute
disrupt
influence
ending
warden
actor
gross
forty
drinks
38
##ts
trauma
ma
collapse
speak
prisoner
calendar
novice
jesus
measure
##ps
rent
classes
makes
current
centimeters
dam
flies
simply
determine
term
behavior
##out
31
530
shining
330
upwards
neglect
investigations
0
owns
derbyshire
arise
swamp
louisiana
climatic
##ire
accidents
patients
secretaries
straw
##berries
bond
98
84
pays
106
ride
mention
deaf
visitor
monks
barrel
trips
weekly
deposits
shy
investigating
architects
design
watched
shades
drawn
apparently
prayed
darts
wondering
discuss
concept
analysis
soaking
smaller
seriously
##nier
##gg
##ier
harder
decade
kissed
improvement
tenant
salt
bern
annually
draft
discount
delta
squared
supply
crawl
unlimited
backstage
salary
stanford
semester
sorbonne
hum
mad
proven
subscription
premiere
abroad
failing
farming
terms
mystery
cuts
##ary
officer
vocational
learn
doors
spraying
social
##ite
jail
dice
verdict
autumn
tu
##xes
##atic
wealth
varsity
squad
pledge
allegiance
graders
gertrude
。
##nk
oliver
##ut
freshman
associate
primary
classroom
hanged
achievement
publicly
sophomore
advantage
jordan
guard
passageway
organic
chemistry
biology
enrolled
eliza
ramirez
alien
homer
##oom
newscast
locker
net
natalie
trains
anyway
souls
housekeeper
7
125
produce
offspring
graffiti
removal
##qui
##rer
costing
ref
##resh
earning
750
skins
thirds
cubs
beaten
earned
wise
korean
##mis
##sar
serving
pond
faster
murder
feeding
growing
indeed
paradise
touched
gran
monkey
banana
banned
throws
hearts
seas
wondered
accomplishment
406
screen
celebrates
underwater
cones
base
##holes
sucks
nun
##ks
assistants
26
imprisonment
separately
objection
movie
trend
##use
jewish
wardrobe
observers
include
stops
bree
immediately
inauguration
medicine
thread
counts
cotton
yards
passports
preference
demand
inc
##rem
##po
##sable
rebirth
innocence
owner
warrior
garbage
heap
##real
##ized
dreams
addiction
fact
remove
bracelet
thriving
metropolis
intelligent
mechanical
beings
mouth
convinced
pigment
quite
precious
priesthood
presided
rituals
belonged
object
patron
##orn
colleagues
loyal
mrs
thatcher
##ae
##tori
insane
powerful
consuming
hatred
leagues
carefully
soccer
grows
mainstream
listed
vast
stretches
junk
uniquely
abc
genuine
cher
hub
telescope
dove
lucifer
15th
castle
sits
contemporary
er
meters
tiger
ste
##tson
outdoor
ding
##im
mathematical
constructed
babylon
temple
absolute
monarchy
pyramid
et
##rus
dormant
volcano
hawaii
tallest
volcanoes
architecture
sculpture
terminus
designed
accommodate
railway
te
##ih
pharaoh
hypothetical
rabbit
rehabilitation
sided
rising
spire
churches
nestled
rose
##berg
shelf
original
sprung
icy
peak
immense
fortress
crush
enemies
britain
iconic
familiar
university
deadly
factories
sight
sentimental
flop
burial
graveyard
bradshaw
##sm
##eri
##zed
ed
##ifice
shifting
sands
inspired
awe
##mu
##lts
tomb
bc
suspension
vulnerable
rome
commercial
international
##rra
##zano
narrows
maintenance
stands
fort
rises
civilization
loss
towers
stored
processed
housed
treasury
bell
model
##taking
hawaiian
ka
##hu
enormous
inheritance
recreation
facility
flags
mansion
hire
servants
cathedral
##omp
##arable
nor
statues
overlook
hut
##hiti
curved
lined
blazing
luxury
island
##ord
##ina
##rily
oasis
mythical
blown
maha
##bo
##dhi
gorgeous
overlooking
atlantic
religious
celebrate
arrival
mausoleum
coach
comb
##ust
##ible
buildings
660
japanese
mainland
promotes
bamboo
carries
ounce
##load
collect
fig
trees
ashes
rise
maze
##if
##ix
colossal
bronze
courthouse
lots
purple
maj
climb
oriented
miniature
richter
waits
talent
hot
residential
hobby
##horse
train
added
heritage
creation
created
separates
##lis
##ues
##ome
unmarked
##guard
extinct
cum
##bre
nueva
constructing
individual
dancer
famous
700
broad
shoulders
amusing
clock
wood
estates
##bridge
##park
borrowed
taxpayer
opera
listening
dying
spanning
dune
highways
communication
sword
lagoon
##kat
floating
##nivorous
mosque
playground
tram
##pol
##ine
lake
##upt
##fl
##oor
steaming
crater
boiler
casualties
build
shadow
imminent
commemorate
visitation
shaped
nursing
dig
decor
coconut
plantation
telephone
supplied
birth
morally
rockies
bills
##work
monument
anglo
relations
obscure
hidden
engulfed
cal
##fest
##ites
cock
##ache
hellenistic
destroyed
sale
wonders
proud
prevailing
symbol
##izes
triumph
faith
chief
engineer
protected
presumably
ind
##ru
nearby
##ote
valuable
civic
mons
##tro
##sity
##enity
natural
harbor
sole
surviving
midst
elegant
taste
raj
mold
glitter
glistening
noodles
devastating
craftsman
turbine
hurricane
##vor
towering
christ
lisbon
wonder
##quist
##ador
sean
brush
##dus
moral
lance
greater
keeps
coast
ways
humans
causes
flour
charming
whenever
shouted
starters
bat
attempted
assassination
shouldn
attitude
farmer
reset
perfectly
deserves
harvard
define
mission
heavens
dessert
load
step
skilled
slow
repeated
victim
doubts
fears
parks
wanting
dose
##date
freaked
idea
resist
ankle
radiating
staying
grades
starts
bath
jihad
bosses
hitter
thinks
semi
trailer
homeless
grin
rage
viola
##tors
lock
moments
casual
curiosity
stu
umbrella
snails
originally
cultural
attracted
accused
##offs
obviously
stared
##mia
dia
wears
charm
smiles
seemingly
##ark
aw
escalated
surf
considering
flynn
celebrity
gunther
laughed
thrilled
proposition
charged
##osing
sweet
surprised
hostile
fen
##ded
protector
beau
killer
exaggerated
investment
reports
weekend
guide
rap
chemist
shaky
##bi
various
initially
pattern
chaotic
worker
peculiar
assaults
doomed
cute
jerry
tuesday
convinces
tragic
denying
embarrassed
lithuanian
bobby
naval
ego
joke
confusing
uncomfortable
##nee
##ze
cured
standards
##ious
purchases
vanessa
allison
investigate
disappearance
keen
changed
allergic
germans
russians
leads
accuse
momentum
nah
##sat
declare
odd
choice
blame
panicked
##ave
immediate
##usions
grande
##ur
overwhelmed
sorts
agitated
dies
exciting
pork
##ative
satisfied
whoa
pressed
keyboard
harmful
toxin
guessing
condo
##tone
complain
sandy
plea
rid
dick
handed
bog
crank
deals
slowly
strict
mn
bright
hopes
temporary
insanity
reward
stunt
##bound
##en
##cend
celestial
##mate
cares
norma
barely
defensive
##ttle
pissed
firstly
recoil
disgust
nod
##ules
favor
credits
scared
memorable
##table
believing
raise
duck
hates
tail
dances
##nta
peppers
le
traitor
encouraged
join
appreciate
examiner
eager
puppy
joy
mood
gently
tape
waking
communists
sensitive
restoration
players
fairly
honestly
kate
##ili
##dh
insulting
owed
noise
scary
startling
spectacular
resistance
abused
##uka
suffer
bits
pill
sabotage
shower
tickets
kicks
eventually
knocks
reading
##books
minimal
activity
playfully
math
probability
hay
sin
infection
embarrassing
##ric
ditch
silent
##ffi
##cuit
slump
difficult
pray
wei
##sh
integrate
creepy
awhile
boredom
dealer
postponed
coke
##amps
resulted
becoming
pulling
essentially
possibilities
grandmother
resisted
noon
fan
##fare
flu
##stered
mothers
judge
esteem
romance
softball
verbal
grenades
trusted
episodes
tone
spoiled
copy
sights
##static
excuses
view
shocked
trek
hide
suspicion
lung
def
##lates
hesitant
texted
acted
diet
needs
reunited
admitted
##ante
crystals
soft
annoying
throat
endless
twitter
tries
coin
protestants
pirates
miners
experimentation
language
shoes
asteroid
concerts
wrath
normally
sometime
trusting
grassroots
effort
talents
##fire
traps
racer
##am
##ming
credit
suites
sucked
fraud
underlying
sense
handicap
outset
handling
honesty
fucked
easier
lied
scent
definitely
mast
##ect
##omy
2001
accusing
monumental
rotten
juvenile
lloyd
daniel
cutter
flawed
destined
flowers
gentleman
dog
##dog
tipped
probing
intel
terminology
held
za
##pping
execution
visual
trick
##etched
locked
owe
preventing
enjoyed
##ping
noticed
introduce
##it
loud
inviting
realized
bold
settle
hated
joins
comic
awful
##tive
##gh
knowing
calm
sweating
runners
##sti
##fied
##wart
cautious
attempts
assert
paranoia
outraged
madison
avenue
##ola
stacked
shelter
##uil
##lab
##ais
sympathy
distraction
bother
meant
rat
precise
diary
unsure
fingers
removed
task
worried
shock
entertainment
remembering
suspected
yep
response
reservations
dubious
##hir
chat
agree
sounding
blush
immunity
premature
sounded
incredible
instinct
gall
##bla
##dder
classic
george
pickup
affair
assumed
friendly
costume
tortured
molded
duplicate
raiding
##ffer
##rdy
veins
ink
apologize
##fi
confused
mistress
deprivation
fatigue
breathing
rely
exhaustion
##nut
##rit
victor
mineral
connect
tissue
benign
destroy
frost
##bit
squirrel
##fe
dirt
hoax
##placed
thickness
##meter
purse
kn
##ap
##sack
lace
imagined
attributed
nick
anterior
aspect
psychological
significance
markings
predators
##uid
appalled
proposal
begged
attorneys
pointed
sideways
##leen
resolve
imagination
resolution
##phy
##xia
americans
bunny
focused
curious
theme
chairs
explanation
spinal
fra
##cturing
tapes
##rangle
rope
troy
alike
##jure
cow
##ker
rats
dropping
##eb
##bel
sui
curse
documentary
endorsement
equipment
accessible
method
instantly
experiencing
anxiety
axe
sealed
communicate
trim
custody
battle
flirting
hopeful
clients
improving
missed
blast
spaces
##uit
domes
fooled
common
pretended
motor
##uron
disease
kicking
screaming
opposed
recruitment
##ching
outfits
##ick
brushed
courier
##guide
stab
maintaining
dignity
liking
trivial
##ories
fit
random
muslim
smoky
listened
informed
uncertain
##uba
##tor
pressing
purchase
feelings
bas
##che
soldier
favorites
##ul
##ge
gossip
tested
observed
loved
confession
##rce
musical
believed
zack
challenge
laughing
pen
realizing
rude
recognize
upset
relieved
psyche
mule
##vie
##rified
intimidated
grateful
detail
sympathetic
annoyed
polite
courtesy
impression
appreciated
comfortable
##ffin
basket
bottled
satellite
satellites
emotion
scientific
cad
##aver
suppose
ash
##tray
seduce
fei
depressed
cable
confess
mining
inappropriate
intimacy
counting
mama
vampire
##og
##gy
noticing
thoughts
recycled
authorities
traveler
sue
leather
##rky
character
trait
##so
##wn
surprise
strategy
va
##gina
exotic
addition
gentle
##fs
roles
tossed
interest
changes
harp
string
quartet
wisdom
##ifer
read
dissertation
fluid
metaphor
insulted
pollen
devil
protect
theater
sleeves
mistaken
terrorist
sex
operating
##mobile
##oo
##ges
##tile
##ck
colonial
joking
cam
##ou
##aging
alzheimer
taxi
vessels
sw
##bed
tia
chi
##up
##un
##cture
##rga
##tory
skeptical
draught
professional
advise
encouraging
wig
margaret
liver
scream
##mun
##eration
##idal
promising
excited
litigation
##trust
quickly
bumped
counsel
styles
roman
adamant
bulldog
breed
programming
equally
accepting
different
ridiculous
reds
21
unrelated
documents
stick
cab
lucas
belong
##book
##tated
support
spine
truth
insist
button
doll
starving
ki
##gaard
espionage
terrorism
cage
eun
##uch
condom
gloves
brutal
families
parlor
request
##ways
funeral
lana
lent
##cr
##iating
headache
stations
banks
dismissed
sneaking
patches
rocky
crude
al
booster
incense
##away
comment
games
stimulus
cerebral
cortex
eh
hack
tattoos
independent
orbiting
depression
era
betray
saving
##eus
firing
flash
wide
ellen
cas
##ca
##ding
manipulation
cellar
drinking
cara
bored
brave
aviator
presented
choices
bothered
volunteers
traction
irritating
indications
poet
sparse
decorated
michelangelo
convince
struggle
##int
##he
spoon
initiation
dimensional
fills
dry
channels
knows
fracture
led
unexpected
session
heather
confronted
##taken
villagers
fled
shannon
vocal
metals
cooking
fox
sheer
scale
success
resign
initial
entry
knight
sessions
dull
commands
challenges
##test
athlete
##olved
sul
##try
nightmare
declan
highs
heels
heading
pal
signature
messages
##rro
##sive
chemical
clone
gabe
gates
overshadowed
polished
accounting
##spar
##ate
painful
swore
grew
toe
creative
detect
hero
jump
stages
org
hardest
nature
nasty
acquitted
younger
roast
observing
##ugh
##ction
disguised
##wash
whispers
knoxville
bam
virus
plagued
narcotics
vie
##nne
waltz
au
##rel
specific
flip
radiation
subtle
##vance
##gned
hesitation
reminder
smells
rusty
conscience
hosts
lamp
heavier
weight
##holder
assignment
minister
risk
impossible
switch
imprint
established
homeland
freed
breathe
fault
‘
waldo
type
evidence
mostly
hacker
verse
##ler
denial
silver
##ware
##mi
##lk
born
##lla
earlier
chuck
programs
hats
implement
pike
standard
protocol
ordering
sharks
invasion
discreet
rifle
ting
sonic
answers
sees
sock
pow
chin
##lier
archers
postal
shillings
singles
mahogany
156
##1
sighting
nuremberg
1945
receipt
dated
api
##ece
lifespan
286
1930s
recording
folk
collection
##que
sherlock
holmes
photograph
perry
dade
yearbook
lessons
bathing
suits
album
grammy
imperial
recordings
product
cancelled
certificate
jorge
gina
lottery
photographs
messed
##vo
##ice
lumber
sydney
trump
elsewhere
prep
##rin
stating
##manship
qualifications
##dd
gift
preferred
products
maximum
customer
##cloth
trembling
flyer
admits
hurry
summons
monday
gan
##non
##ake
funded
betting
grandma
dummy
handsome
prove
angelo
##da
raven
scroll
rendering
passport
##owa
gym
savings
disc
price
hove
skiing
adults
poster
audio
##pes
financial
political
connections
corporations
sofa
##rou
springs
skeleton
fierce
scratch
austin
bangkok
kun
##san
350
discover
threads
prescription
##nat
sao
paolo
luggage
fascinating
burger
lipstick
kiev
ukraine
yemen
calais
broom
saint
petersburg
egypt
baghdad
exit
jo
fiji
laurie
bays
##water
paddington
snout
dogg
beds
synthetic
sentence
stony
awareness
saturday
treaty
strategic
jar
rolls
tolerant
guarantees
readily
provided
lips
##ari
canopy
useless
graphic
turkey
ottoman
couch
irregular
ballot
decision
fill
shoved
unfortunate
ignorance
grandfather
minus
pepper
##oni
pine
##apple
trip
cairo
rattling
cages
wherever
tied
stare
capture
decent
jealousy
##lem
universe
official
document
treasure
exchanged
notebook
dictionary
expression
reid
canyon
cot
herbal
citation
lets
britney
regulars
##case
dresser
nightstand
offensive
plate
handy
sometimes
staring
##v
demanding
lifetime
shade
spilling
colored
laundry
##sos
ds
##sel
##dor
hanover
gentlemen
faded
blows
sheet
unfinished
novel
pants
ivy
greenwich
pip
reside
locally
poker
gia
##nni
vo
##ucher
hug
describe
kit
##w
rendered
laying
amp
##ered
false
diploma
unfamiliar
distorted
diamond
attraction
valid
2007
hotels
housing
options
relatively
inventory
infinite
unfortunately
sunday
shortly
rosary
beads
rear
consort
philip
brass
speeding
intricate
spun
useful
##ink
sphere
bob
weir
romantic
italy
violation
incurred
leaf
crumpled
grayson
tab
180
functional
eu
##rail
backpack
failed
socialist
policies
##lus
##ntal
persian
carpet
faber
##si
##gn
hagen
graham
techniques
locations
delivery
cast
tar
bruises
effective
wax
##etti
lindsay
baxter
caracas
jacob
##son
##ian
rug
##wig
erotic
thomas
edison
fiat
deed
possessed
cynical
mixed
91
swedish
##lar
##ger
pump
##itzer
##tu
##ce
librarian
##tos
##the
##nes
david
##b
1000
popped
blank
slate
surveillance
photographer
stack
irrelevant
##vey
dem
##ean
rental
agreement
bal
##bir
towel
sheets
via
dots
napkin
ross
excused
weighs
gram
ransom
licence
julian
blink
grandson
aye
rodeo
insignificant
spare
parchment
contiguous
icon
legacy
flowering
cuisine
vinyl
harm
personality
haunt
spite
architect
boo
##rish
##print
copper
candle
particularly
gray
permission
##sit
ivory
greeting
lobster
lawn
complimented
violations
hollywood
freedom
unspecified
upper
draw
##field
stamp
claimed
atm
visible
shadows
retreat
intersection
sets
cigar
razor
copies
hideous
##rte
liv
##idi
scalp
##wny
##head
##bil
##itate
caliber
flame
shell
severely
questioning
sur
hits
quit
backwards
##ste
skulls
foul
pro
##wl
##sto
##ppa
unto
determined
fearless
attractive
direct
tasted
circumstances
##io
##zard
tournament
collected
bases
authorization
requested
punishment
slash
prices
masters
skip
##xi
jett
extensive
forensic
diagnosis
learned
ju
##ror
morality
exclusively
focus
desire
##dic
##hearted
resource
obsessed
endeavor
dedicated
astronaut
##iv
##ided
preoccupied
transports
loyalty
mistakes
trans
concern
devote
seeking
recover
carrying
duties
molly
samples
gifts
strictly
worries
attachment
intent
##tas
devoted
##flict
fate
praying
sweaty
training
slipped
lia
##nz
intention
disneyland
intentions
peaceful
daughters
ad
slant
occasions
punch
ob
##ses
closest
encounters
##nge
kitchens
bei
jake
misery
searching
obsession
criminals
justice
cargo
bent
retribution
commodity
futures
trading
regulate
default
swap
reaching
charity
struggling
actress
wrapped
asset
vengeance
adventure
iso
##pro
alexander
##fully
intensive
research
theories
fe
##vent
forceful
nationals
offense
attempting
sinclair
kingdom
emperor
federation
insisting
witch
accustomed
pursuit
ambitions
england
prevent
unite
instant
orient
rag
terminal
ill
##su
targets
repeatedly
weakness
wipe
swung
##ada
##bra
kata
##rina
##em
##ber
valley
rush
nurse
agents
congratulations
remnants
heal
distant
##tight
overly
##uber
jazz
shudder
separating
goodness
bare
ashley
atlantis
faced
mortality
inevitably
serve
##ght
nipples
cord
wil
serena
plastered
##vious
aunt
redhead
hopping
##cite
pained
pic
##turing
floppy
marrying
caravan
tense
california
relatives
weighing
quality
numb
darkest
concentrate
impending
inca
##ration
paralyzed
tragedy
beating
misty
steam
catherine
genes
##child
helps
sanctuary
ak
##eem
strings
treasures
diva
nerve
##ack
relaxed
##vish
entitled
dread
heartbeat
presidency
thirsty
ordinary
kent
##ser
##vant
heavy
wisconsin
spitting
flutter
##gles
wed
##gies
swirl
frank
churchill
flint
tumors
##riation
skyline
appetite
hurts
keys
fiance
##ens
prevented
pia
procedure
imagining
bringing
##men
laden
pitched
astronomy
scenarios
##ense
regency
thick
thursday
legitimacy
naples
hereditary
gaius
thrilling
##tem
##plate
bald
alison
behold
solo
##nius
safer
wholly
##des
irene
shadowy
##pin
emily
chill
##gau
planned
arthur
cuff
scares
pale
bury
hurting
profound
sorrow
add
grammatical
errors
gag
repulsed
tore
runway
##ner
endure
os
thrown
terrified
clasp
greasy
##avi
guardian
nonsense
jim
retiring
##li
facing
guilt
horror
inflicted
tradition
horn
shiver
ingredients
constitute
fi
##lth
##uls
knuckles
sewer
unbearable
tremble
goose
pi
##mple
swelling
##rring
mort
outrage
concerns
discovery
monster
crushing
delightful
shoving
devi
##tou
##nding
##sta
pounding
trenches
details
phantom
punished
chu
##rn
toes
tingle
combat
##inge
##hell
treating
tits
aching
yuan
hopeless
##iii
legs
##llet
hunan
balcony
brings
##ila
audience
sensing
danger
races
panic
equals
02
03
creativity
rigid
predictable
consistency
##go
##bl
watson
naturally
affairs
##uf
ja
##bba
sake
johan
hog
graduated
thieves
someplace
gladly
powerless
posters
utter
confusion
renewed
craving
accept
##ach
thirteen
generally
ot
cigarette
borrow
thoughtful
baffled
##ep
##ending
wagon
veto
karin
champagne
io
neighbor
accompany
dart
sweetheart
intuition
assumption
caesar
lift
beast
remaining
spec
fairness
cleaner
##isance
ears
enthusiasm
constantly
farmers
##owing
provides
opportunities
balkan
wars
painters
versailles
voluntary
##dents
atrocities
chosen
prussia
transforms
##te
russia
struggled
democratic
movement
austria
splash
vet
wounded
battlefield
flashbacks
fought
battalion
bounced
leaders
yank
thus
##burg
qing
##bag
hitler
sturdy
beak
skull
pun
section
backbone
kazakh
grazing
livestock
renovated
registry
fore
##osed
brussels
freiburg
invited
##no
candy
companions
hardwood
floors
ke
##rmi
clinical
psychology
101
purpose
singular
respected
lifestyle
inaccessible
wilderness
requirements
##ivity
supervised
surgeon
tel
peshawar
doorbell
baron
gil
##ead
maine
fred
nearest
correctional
institutes
georgia
educating
clandestine
alpha
confined
asylum
based
arts
antiquity
monastery
vodka
visually
impaired
swim
forks
studio
byzantine
closes
opens
fails
portal
##light
gateway
understanding
warmly
wooden
##nst
replacement
stripping
worlds
hatch
chains
oceans
william
blake
humid
source
##ayo
dimension
thee
randall
ya
slams
fantastic
previous
item
missiles
hostages
furniture
##ash
merchandise
material
##ok
handing
offering
redemption
thumb
##lined
balanced
##car
##iously
##rito
arm
##hak
bubble
##z
johnnie
closely
rule
cuffs
carry
bible
##ow
lighter
detector
laurel
indians
bolt
lightning
viking
hat
bricks
bullets
fist
jug
swan
picks
shovel
grabs
liquor
##alo
##pot
vase
tumble
knife
pointing
resting
genuinely
gilded
mono
suitcase
roses
mammoth
refrigerator
rook
guests
conceived
id
##eo
##logue
##hand
tr
##uj
##illo
fold
cuban
##mind
uncle
##zam
ty
##len
##ol
jones
flames
sleeve
##old
##ering
sparkling
jewelry
seizing
china
debt
liar
accuracy
##kle
cities
fallen
##ppe
stamps
lamps
##pm
baker
robber
sells
##orted
shapes
sunglasses
ammunition
tae
##nation
salts
##sc
##roll
boom
onboard
scramble
##hair
brushes
corners
towels
steak
points
dough
##uts
glazed
jelly
crowns
##lass
socks
sherman
tanks
wing
##tic
condoms
routes
stemmed
arabs
mai
##ign
##cies
##ight
##end
unlike
wartime
twist
experts
accidentally
slips
##val
carved
240
c
radicals
ss
grunt
seized
chips
stones
##sr
##ael
searched
vile
crop
evolved
dinosaurs
barack
obama
depicting
mercy
##pile
wheat
pub
immigrants
sprang
biodiversity
convict
##rate
thanksgiving
pilgrims
plymouth
acceptance
november
mane
injected
fuller
management
hk
protesters
##rth
##ans
keeper
teachers
salaries
shredded
currency
##era
heroin
bombs
biotechnology
labs
##power
partners
latch
decades
hewitt
leo
located
maddie
chase
trucks
##code
alert
bauer
district
reckon
serbs
gauge
shotgun
bet
smith
wes
62
pierce
##imeter
pistol
carl
nelson
shaft
convicted
##lon
##nc
##ctive
conqueror
julius
honorable
grabbed
revolver
hooked
ceremonial
dagger
##ret
knock
##off
cleopatra
altogether
excellent
mach
##kin
han
##zo
hammer
issued
sheath
fork
shan
##mmon
counselor
chest
duct
pegasus
##one
legend
victories
hm
pierced
strikes
container
arch
##ime
soda
friction
driven
automatic
##tom
serra
ax
chef
cart
mist
##reate
fender
handgun
##gon
guitar
chords
thin
joey
##face
##iers
ode
##kir
prostitutes
uses
tt
##akes
##nu
containment
dea
##ivate
##key
bingo
safely
snapped
tool
grenade
browning
youth
vintage
dried
gee
##zer
begging
##dre
##ssed
blessed
shin
priest
unicorn
##thing
crossbow
triggered
affected
destiny
countries
distinctive
ninja
handheld
sonar
velocity
rip
wren
tackled
wrestled
folding
hangs
throne
resembles
jaws
backward
##els
oyster
shu
##cking
tran
##q
##ax
mix
cabinet
##chan
displayed
badge
forgive
cups
trunk
colt
##lock
ladder
tooth
##brush
inn
marsh
##mal
##low
fran
remodeled
pawn
##sho
samurai
##imi
sweat
tears
pear
##lice
##nsed
##mc
##gist
stink
slim
crawled
marine
fiddle
torch
setting
waterfall
ambrose
crisp
advantages
diagonal
380
australia
among
prime
##app
journal
##oran
bowie
burden
pearl
##df
pasta
diameter
phase
1840
springfield
##ske
swords
antique
assortment
bran
tan
##istles
##cle
walnut
vanishing
proves
theory
unlock
zip
tongue
scrape
stalk
chopper
butterfly
##drive
customized
##urized
spear
##gun
auto
sci
##ars
assuming
provide
##iary
gallon
##lder
representing
fingerprints
loop
##wear
noir
nails
##ythe
##cating
ceramic
##ley
accompanied
##cus
##ema
sheriff
bastard
dun
occasionally
engaging
athletic
voting
sunrise
bro
roy
avenge
##back
ti
works
viral
##hol
tanner
puerto
val
throbbing
drawer
leak
batteries
linen
tor
##pati
grind
la
##mer
chop
clap
splits
##ville
click
plug
foe
avoid
thrust
glad
snoop
stance
ko
waves
tara
##ula
lan
captures
worship
prosperity
taught
elementary
circuits
##unced
smack
punched
##gling
pins
##oped
recorder
punches
##rag
marcus
shatter
flew
dent
##rock
sickness
jaw
pat
##ern
##pl
panties
frequency
##ride
##gram
reactors
manually
briefcase
##ches
stakes
bae
grant
##yl
##la
dock
##een
hood
width
database
beijing
mixes
##lim
##phine
operates
wiped
existence
contracts
skeletons
squeeze
wi
##eld
leans
rai
cao
choke
bitter
shops
kettle
twigs
##eed
weigh
bouquet
##ntes
platoon
pitches
rows
##outs
par
seating
prepare
counterattack
##own
crops
spectator
sections
terrace
artillery
continuous
sink
marble
array
solar
panels
##ddle
poultry
microscopic
cells
gear
browns
##tones
cliffs
seals
##cia
airline
##tea
bushes
transition
meadow
stitches
##bee
##fu
##cker
lighting
expose
technology
explore
throttle
cough
active
duty
paul
butler
facilities
touching
##du
leaflets
slippery
slide
crushed
cloth
##kins
##rge
toss
smiling
jealous
aggression
##ye
##uri
prague
valentine
idiot
addresses
##ologists
bot
bearings
argue
jin
mentioned
follows
induced
acid
##lux
reform
eats
##bes
nano
induce
disgusting
cries
assistance
verification
matrix
li
register
enduring
##oping
glasses
amazingly
spike
deliver
dimensions
faint
hint
##ipe
pockets
airs
##oot
##borough
luna
##tus
##oss
eaten
##cas
uno
##ha
308
nosed
##hner
harmonica
melody
phased
plasma
watt
colony
warriors
sanctioned
arrow
medium
midlands
orchestra
##far
southeast
fleet
cuba
ios
recruited
jai
rev
fireworks
negro
##ading
mala
##star
##elli
forehead
##ometer
northern
warships
hyper
##space
sector
##ets
arrogant
smiley
armada
prehistoric
squadron
republic
fighters
corps
puts
eastern
sep
##arat
arrives
bounty
hunter
modified
splinter
heights
##udy
op
northbound
sunlight
hammered
##ben
##ders
cleanup
assist
creatures
##form
potato
nas
dominated
regional
qualifying
joe
gymnasium
geologist
host
##jm
##ege
fearful
contingent
insertion
brigade
ban
candi
passage
##vy
native
mason
convention
mighty
institution
mobile
salvage
recovered
predatory
camped
scouting
expedition
glen
##wer
infiltrate
carrier
savior
newborn
bridges
oldest
relics
continent
47
maxi
pad
detonated
unusual
genius
engaged
tribe
sy
leaning
adams
aboard
expeditionary
procession
rocket
ba
##zoo
##ka
agile
clever
filmed
##inho
turtle
##ened
sk
##our
greece
raf
mascara
electro
diver
##nche
##mento
pens
pipe
easily
psychiatrist
##naut
invaded
quadrant
lisa
satin
mg
archaeologists
discovers
spheres
flag
##ton
albert
ours
sail
flower
humming
cricket
enter
consulate
cc
##eca
bolton
ser
elemental
tube
##ouin
crossing
##grade
india
strength
travel
##his
##tam
staff
plain
link
whale
elephant
perfume
contains
equestrian
barcelona
drifting
ghosts
shark
grief
practiced
receiving
potter
telegraph
hurried
receive
payment
overcome
embedded
stereo
##type
barrington
panthers
bacon
twelve
##yre
banging
tap
tee
afternoon
##ddled
labour
tess
precinct
studying
disappear
courage
disregard
freshwater
flows
sober
enforcement
##dra
ringing
cooling
cameras
beck
rammed
##ising
miranda
depending
knox
prints
generation
dishes
##wk
tomatoes
vanilla
smoked
roasted
bust
deposition
biting
performance
mid
seam
quartz
ribs
overnight
herds
throughout
vital
pressures
accomplished
productive
covering
grocery
antennae
210
anthony
##bird
nap
##ped
spends
##rsa
##ult
barber
coaster
gin
secrets
surge
hitting
dealing
dreaming
apologized
knees
mapped
decisions
##chy
certainty
jeff
forster
rubs
collier
ain
ruined
deleted
##trum
spectacle
##ulo
pajamas
drilled
attention
answering
celebrating
childish
chewing
customers
rodents
##iling
billing
hunched
rs
##amp
laptop
woo
##zy
wit
##wick
din
##ock
clenching
thorn
dancers
dressing
impress
soup
literature
##ren
ol
theatre
mechanic
##nction
basically
##iner
infectious
diseases
laws
governing
dave
camping
du
##vet
ankles
alright
pretending
feared
coveted
starved
jars
chorus
pirate
jew
fashion
##ista
turtles
exam
parent
kim
manipulating
engine
jammed
stayed
cosmic
satisfying
gunfire
manner
##ivo
##lity
wink
crouch
walt
pumped
accounted
sewing
glider
##ines
restaurants
exhausted
bush
pit
##eous
wet
electric
fossil
dinosaur
tailored
raw
rice
ron
ca
##yen
litter
##pas
danny
jess
wholesale
underwear
inspiration
entirely
mammalian
competitors
shores
vibrating
helmet
peanut
preach
rye
howe
vanish
puppets
##oon
##mir
govern
engineers
camel
concrete
utterly
worthless
dei
companion
snakes
rubbish
##mb
debts
##we
##aker
lc
##him
##ji
domains
ich
##imo
##rgh
##cci
##pit
lobe
troubled
spy
affect
submission
compensation
similar
defence
##ulsion
##ants
##bots
inner
##ept
##icon
##ran
credible
champion
richest
exile
realizes
veil
succeed
fighter
knockout
legitimate
recovering
felony
patriot
technological
versus
hind
##run
motion
balloons
19th
surfing
extend
ability
extract
resources
populations
##zar
makers
terrifying
elaine
ruin
physician
obliged
judgment
##iring
deliberately
punish
shield
celebrated
neighborhoods
statement
focusing
screenplay
kai
indonesia
denies
supporting
revolt
partly
frey
insisted
corpse
adjust
angle
##take
mouse
argued
involve
##va
rare
industry
cultures
liberated
instruments
astronomical
mag
##cence
destroying
seek
maker
redskins
guaranteed
proceed
practical
##lie
##nable
whilst
app
##lau
tremendous
context
architectural
psychotic
vivid
##inger
inherit
psycho
wishes
scientist
overwhelming
ravi
lunatic
exploit
abusive
slavery
rejecting
boost
confidence
citizen
engagement
moreover
victorious
sh
##roud
realities
##pheus
fade
##mmy
jason
unpredictable
##ort
vi
##late
##och
##rom
##ato
##rim
depth
varies
according
policy
comforting
##aring
cross
smelled
terri
trail
toward
conservative
television
materials
confronting
connor
sheep
perpendicular
broadcast
aside
crabs
fits
duff
elements
##lova
vain
promises
definite
##essed
possessions
nad
grandpa
##iah
reduced
practicing
vacuum
gem
sins
##pling
disappointing
password
guarding
precisely
studied
explains
laser
beam
systems
vic
affection
hints
clubhouse
##net
nope
bitterness
temperature
gain
##pressing
captain
wore
ring
ignition
skills
unpopular
##gis
outlaw
sidekick
restroom
whatsoever
further
mug
everyday
directions
disturbing
chickens
##fy
jumps
roots
tombstone
drops
commanded
werewolf
michael
cats
##pire
thief
32
astonishing
om
boot
politician
steal
equivalent
labor
wounds
meaning
coward
evening
princess
##cat
duel
nazi
ranger
crook
loser
anytime
falling
afghan
eliminated
opposing
meek
leaks
merry
##rant
##ue
reasonable
orbit
plains
coil
temperament
cloud
##bu
##rst
lowered
##ulated
democracy
producing
bubbles
overlap
abilities
doom
##sd
##ay
prophets
gained
posed
threat
forgiveness
sour
doorway
##ev
holes
objectives
traits
tasks
component
blindness
##fell
##gil
##antes
vr
repealed
cleared
passengers
##plane
manners
##you
bull
nam
##won
chun
##hya
##fires
fallout
settled
pt
cannons
tricky
##fort
##une
confessions
recall
rewarded
interesting
involving
liable
##ppel
##gang
adam
ua
##rmed
transaction
confirmed
bargain
undone
leverage
##fight
mated
lifts
neutron
##just
learnt
perception
##via
##ffle
catfish
undermine
doctrine
gaining
tonic
leisure
uncovered
historical
conspiracy
robb
##imated
##nail
invalid
withdraw
individuals
origin
hunted
isolated
spirits
defeat
resume
bites
withdrawal
links
crimes
stepped
plunge
##mba
##rk
caring
tak
jam
brakes
hacking
cloak
##hp
gap
clearing
shore
##cre
deemed
##pen
##dable
overboard
undo
##cum
##ented
tires
tuck
lodge
##ptive
suffrage
##tte
departed
communism
swarm
seize
vault
##ckle
vicious
targeting
installations
nova
bulk
approach
##ard
whispering
path
conviction
nephew
##hd
theft
##kai
dealt
sterile
realise
kidnapped
fleeing
alam
##uti
blades
peel
vin
alex
vol
shipping
girlfriends
behave
clutches
##asse
##mble
grasp
squeezed
##hood
wicked
dismantled
economies
lay
facial
darcy
authorized
exposed
harsh
environment
scrub
audit
rio
payments
spill
##gu
##ys
reprinted
kansas
forbid
rangers
scan
markers
contra
##dict
facts
anger
amazed
revealed
discourse
fluffy
intentionally
##bid
##lit
uniforms
werewolves
completed
pinned
ted
confirm
fide
buys
nato
##hen
reinforcements
##eur
cavity
flood
##lium
hose
observation
neutral
affects
##of
alarm
##ours
##gged
bonus
likelihood
ethnic
##with
hostility
alliance
##ening
faltered
gathered
rounded
sampled
imaging
suite
locate
prey
airlift
freight
invade
negative
wyatt
providing
ono
ps
##oso
deposed
acoustic
nail
desired
fulfilled
decides
crosses
oxygen
turks
severe
##wise
treason
twitch
electrical
components
sticks
consequences
compelled
happiness
approaches
breathed
tells
signs
surroundings
##ide
fewer
responds
##wall
arms
improves
alarms
obstruction
##uta
##pu
committing
bumper
forgot
confirmation
contents
willingly
leadership
reg
medication
regain
consciousness
competition
ruler
attached
spotlight
premier
defeating
confirms
deposited
catches
mirrors
telescopes
outs
##ties
dos
##age
vent
accepts
##ey
learns
online
theo
##utter
transient
unconscious
assets
##mur
borg
##ias
importance
ir
##iated
metabolic
survive
conscious
otherwise
calculated
notices
circulation
dotted
empire
dissolve
cushion
whereabouts
aging
sped
effects
##fect
richer
foster
lash
patent
telecast
create
sensation
truly
pregnancy
accordion
sinks
##ec
organization
afl
##oat
horsemen
fiery
conversations
crashes
##hed
##stis
declaration
overturned
canteen
licking
nc
wakes
##nosis
effect
gains
polish
citizenship
stopping
indicates
intends
achieved
mankind
bitten
cure
blamed
asks
mat
puzzle
feminine
walks
paranoid
suspects
retrieve
rocking
loses
##bin
##der
##wire
violate
establishes
dominance
rust
##ott
representative
stamped
flinch
compete
##ll
pools
threshold
notified
##dia
v
##ko
objective
responsibility
ic
##arus
iran
##und
principles
##pd
sensors
degrees
capability
bertram
bourne
highest
dante
##pack
internal
stadium
florence
nathan
##fine
conceal
testify
stairwell
wiping
##tions
happier
declining
eli
##cit
spreading
slits
balance
routines
ropes
chalk
basic
fundamental
principle
heroism
wheelchair
hesitate
bouts
##plication
decks
##tric
conclude
escorted
signals
##urity
caves
##rica
supplies
partnership
dispose
situated
tapped
andre
boards
retrieved
bundles
lifted
genesis
disco
assigned
reservation
##graphy
contain
##leg
wai
sob
##riety
##ita
hospitalized
opt
warns
##ere
assurance
dar
##ati
##fying
adding
testing
bend
squash
##ug
overrun
globe
occupation
calmed
arrange
convert
disdain
presence
analyze
##iol
##erty
##ad
joined
promotion
sap
clubs
portray
oath
##fat
##hers
ease
publish
incomplete
##fold
chick
concussion
therefore
sandwiches
sworn
dutch
bark
category
##itte
reactor
horizontal
assessed
behaviour
income
##ana
##nal
african
descent
contradictory
contractor
##ob
crust
underneath
cry
1985
cycle
gershwin
tension
ao
##rta
##inating
tricks
polar
arrangements
##ision
announce
brink
lens
##gra
##vity
particles
altered
amongst
messing
##gging
sung
belongs
toy
expressing
##most
traditional
##tures
automated
godfather
differently
elected
##ins
##phone
antibiotics
growth
anguish
torment
unacceptable
chances
fallon
quieter
contraction
reproduce
independence
agreeing
depend
hallway
contaminated
##oning
sponsor
##oney
##dote
disks
gi
##obe
shares
ari
##tha
folds
outta
engage
##pon
##used
demon
##ject
monitor
static
emotionally
bishop
stays
sonny
ala
remembrance
seventh
unlocked
##yr
##cope
dixon
technique
hospitals
rink
ruled
version
atmosphere
collateral
gather
##ning
administrative
tighten
timer
avail
finite
mentor
trillion
preserve
experimenting
survivor
notoriety
judicial
##itude
darkness
descendant
##vin
mmm
respond
##cc
##iri
medallion
deeper
phenomena
however
insert
reputation
calf
motions
advances
perimeter
floats
framed
intervals
jericho
uploaded
outcome
algebra
canal
values
solution
losses
ze
goals
courtroom
latter
citadel
organisation
counters
repairs
jacket
hitch
herd
improvements
homework
ter
##vers
##oint
responsibilities
doubt
unless
approval
dung
absorbed
bandage
lorraine
smoking
marked
followers
tagged
registers
admission
isolate
causing
##ergy
reins
##tate
cabbage
vomit
sorted
norman
accurate
depictions
aspects
existed
volume
levels
##say
persuaded
##aus
winnipeg
phi
gamma
backup
14th
completion
fifth
territories
freaking
tres
##pass
##block
stretched
speaker
manchester
shrub
dissent
accessed
##za
warmed
ventilation
##anger
marshal
##wil
slam
##win
customs
emotions
crucial
qualify
incorrectly
user
##ception
attacker
settles
roads
approved
pour
berries
countdown
bonds
deviation
methyl
##amine
commit
properly
##ee
hormones
brest
shrink
luminous
##eh
klaus
conquer
opponent
chloe
##walker
specials
afforded
##world
instrumentation
powered
nationally
present
integrity
challenged
broker
triad
hooks
##nist
##room
cafeteria
rarely
matt
##houses
pluto
replica
abd
substance
##born
##eding
haul
heats
spilled
worldwide
deter
##rent
munitions
flooding
reflected
advanced
ky
##lin
freeze
mercury
cooled
isa
##bc
retain
deco
##ose
author
condemn
areas
##ups
assassinate
realm
ruins
referred
sensor
mer
airborne
switches
adulthood
penalties
breach
discretion
##uo
marriages
parasites
curtain
violent
catastrophic
covers
symptoms
recovery
fatal
##hesion
density
mp
wiring
proceedings
await
cosmos
fractured
jay
##ff
##pt
##ures
discharged
separation
distracted
scores
erased
tumor
cid
kan
##ians
increased
poised
profit
tie
merge
subsp
##ace
zach
applied
ph
streamlined
optimal
brewery
amsterdam
midway
tribal
reaches
lays
records
recruit
royalty
airlines
engines
finishes
lucian
operate
detainees
crisis
shove
prosecutor
clears
parameters
returns
ava
##abi
89
mild
occurs
diversion
##khan
tends
flourishing
##para
networks
##iste
##ncies
##eg
disappointed
humanity
costello
fragments
mac
slit
happily
releases
##virus
posse
intercept
detection
interference
misconduct
slack
por
sighted
transmission
##rave
offenders
##mar
##ily
dismiss
##ify
slightest
vaguely
cheng
vehicles
ton
##lal
##ten
surgeons
##dine
##lights
quake
disaster
activate
cancel
autopsy
tam
speeds
data
download
servers
frightened
amateur
##ti
trustee
funds
##ured
unstable
lark
captive
enhanced
intense
squire
remain
frogs
mermaid
antony
spreads
narrowed
finalists
##iso
disposed
##imus
##uel
predict
crawford
##ito
##cute
##ised
rural
tearing
former
##ggles
##rance
##door
##link
grinding
spikes
explode
mortal
hearth
tripped
ripple
weaken
reality
wireless
voltage
administered
##thi
rapid
##carbon
hydraulic
revealing
allocated
argument
inhaled
creating
##inatory
##mouth
ambulance
react
rumbled
impact
pakistani
battling
##yi
spell
ars
##oles
formula
##ested
alignment
nationalists
##cision
cis
##person
voted
herbs
bladder
eng
##org
organs
transplant
nightmares
quarterback
ranch
coop
##sal
monarchs
reduce
seed
sheds
jurisdiction
stray
classrooms
##mmer
est
##ished
formal
tunnel
machines
adrenaline
automatically
falls
##nis
##ball
guild
##christ
artwork
extracted
analyzed
ch
mussolini
nat
##oys
weakened
suppress
##rest
##rial
sleeps
lover
archbishop
outlined
concentration
vertical
convey
swell
carbon
##xide
##tec
severed
monsters
astronomers
ceiling
repaired
turbines
industries
##uation
immortality
corrosion
deprived
nasa
##hop
##hore
suicidal
cardiac
drum
plum
##met
gaze
damaging
miracle
odin
casket
audrey
##ient
elizabeth
grimm
siren
eras
bosnia
converts
triangle
exceptions
##sic
attributes
stabilized
##brook
remembers
aware
##isha
liability
module
role
translated
##pants
breaker
weep
inform
##tis
certainly
delay
substantially
demanded
##frame
linked
horribly
unpleasant
##rons
compromise
rushing
##ong
exists
acquired
manipulate
arousal
gospel
matthew
luke
unable
warning
##stream
##hold
##iff
##formed
settlers
leukemia
murmur
##cal
##ani
lanes
burst
darker
regions
permanently
parental
proxy
sliced
healed
titanic
arsenal
digital
donor
rightful
owners
rivers
spit
constitution
tastes
destructive
engages
suitable
hull
granddaughter
pony
positioned
alongside
##zan
length
obstacle
##ene
##tra
accelerator
##icient
depleted
##dah
generator
##om
melted
accepted
lid
sustaining
flushed
ineffective
annie
henderson
hires
ami
##cable
shooter
masterpiece
ts
##ah
successfully
finalized
protective
sac
hunters
donated
excess
concludes
eden
##falls
concluded
differed
##cide
motivated
barriers
hash
##ht
##ple
excitement
chooses
geometry
appeal
missile
##het
root
utilizing
efforts
antigen
wizard
compound
goblin
##cp
##art
pulse
ana
##ctic
costa
identifying
organisms
tables
screens
embraced
hardened
despair
##urse
brian
bargaining
greeks
senator
palmer
parkinson
progresses
dementia
##stra
stain
platform
floods
tissues
##usion
cooper
pursue
refuses
##rates
substantial
generated
jury
##lat
##hering
airfield
##ably
##port
fundraiser
raining
halted
interruption
downward
produces
induction
guarantee
limited
bottles
filming
crews
videos
underway
##ther
extended
modules
debate
kepler
undertake
unnecessary
pathogen
##nka
devastation
impacts
##den
locals
romans
##pad
attach
software
clinton
compiled
climate
lakes
##ulin
neural
extraction
generating
exposure
##thic
privileged
historically
##ju
drake
relay
sloane
##rence
pumping
##lines
mans
consume
planted
agrees
announces
margins
dramatically
##ough
interfere
extraordinary
instruction
##fo
temper
flare
remarkable
##dicate
threatened
sept
fights
##lid
downs
##ides
comedic
develop
environmental
potentially
seduction
##lam
airports
duchess
bis
##gli
mature
ign
beacon
liberty
##fed
dependence
##pton
flipping
brief
##rey
swiftly
relative
cramped
58
airplane
##sions
conditions
ingredient
culture
##cam
##thes
planes
determination
stumbled
##rang
signatures
harbour
gal
##weather
abnormal
##wai
##nob
jeopardy
col
##lide
hovering
manual
suspicions
practices
ignore
submit
##res
##sible
cans
creek
calculate
gs
##izations
negotiations
processing
##trip
experiments
consistent
widow
alvarez
slope
martial
proceeding
transmitting
##ane
choosing
characteristics
invested
pedal
fbi
##free
antwerp
negotiate
manuscript
clearance
evade
descend
loading
whipped
##gard
craig
passenger
lauren
stepping
pendant
solve
##uter
tilt
gordon
uranium
plenty
identify
translation
capital
rebound
therapy
waterway
supports
stabilize
appropriately
rolf
seeker
amassed
##eck
82
influential
communications
menace
capable
roaming
formally
anal
drilling
affecting
express
vans
##ang
##ulating
##balance
ratio
readiness
reveal
##uld
verify
equation
persecuted
jolted
operations
devices
infantry
nevada
wasp
protein
departure
viable
encryption
batter
ensure
positions
##town
panama
bessie
broadcasting
regulator
42nd
organize
bonded
unified
reno
##vate
organized
##long
discharge
acquire
brutality
limb
salvation
mischief
resolved
establish
basel
##ess
caroline
segregation
immigration
##dim
##ional
detectives
bless
alps
glide
torre
##ntial
bypass
warned
shed
graf
houston
grips
obtain
waters
encourage
shivering
orgasm
satan
politics
photon
processor
##aton
sting
ives
wasting
##tin
chrome
israel
insurrection
ranks
blair
aligned
findings
contributions
luxurious
synthesized
inhibitor
##oured
treats
disagree
recalled
toad
cpu
sam
sorcerer
##my
##metric
tent
dial
char
gov
##nies
doctorate
strawberry
##inal
realised
identified
serene
monaco
##dling
backs
yanked
approve
hara
##ssing
assure
intend
orb
fitz
pathway
##wee
##ba
sausage
strife
codes
bounce
##ir
items
pam
digit
##gur
mastered
demons
straightened
listing
guidance
stealth
ruining
landscaping
correctly
mar
##lb
##oro
earl
grey
soy
francs
cigarettes
barclay
ribbons
##cor
##ols
prima
##cript
euros
tech
gravel
fatima
juice
thunder
cocky
##pic
phillips
seniors
whisky
rod
##ener
##bine
bolts
thoroughbred
##af
stallion
##line
lone
mare
##oa
rom
chestnut
continental
accent
welcoming
retired
walter
pinto
##jun
##ior
silk
shetland
racehorse
##osa
filly
aerodynamic
##bone
wingspan
dragged
rider
stroll
tame
##rill
horses
coli
armour
curses
isle
zone
131
matched
caller
intruder
eleven
fourteen
116
177
battleship
jews
395
motives
yu
##backs
orphans
sa
##bot
##zle
##nko
gratitude
jamal
##tia
certificates
thirty
assassin
competent
euro
exclusive
distribution
gaping
turk
~
grenada
monthly
transportation
mommy
pardon
helium
##dian
faults
bells
crocodile
tongues
19
1800
1500
toilets
1750
remained
fundamentally
unchanged
yen
neurons
syn
sunk
infrastructure
##feit
##bags
stitch
mega
colombian
##logram
swift
##let
minimum
viewers
adapt
1600
sixteen
swiss
##iger
rabbits
##chio
##saurus
converge
ants
aim
shooters
##ammed
357
magnum
bananas
barry
tha
murderers
endured
siege
##lash
remote
lands
tibet
millennia
magazines
cattle
attract
swat
apr
friday
expired
warehouses
wolves
vikings
founding
uniting
conjunction
barbecue
unbroken
charleston
temples
##uaries
dai
##sies
repetition
catching
metres
z
outrageous
reverse
viz
armies
anticipated
tales
piles
##lot
litre
promoted
liter
saline
generates
##bro
##cede
##xt
##rose
##sma
##gne
sulfate
ignorant
##alia
musicians
terrific
massacre
insult
##class
##kind
til
theorists
opposition
shire
##oda
spears
prohibition
bribes
harvest
anthropologist
seeds
molecular
reserve
naomi
mushroom
essay
glaciers
partial
poll
##cier
gypsy
stein
everest
catholic
breakdown
rations
halfway
brazilian
danish
mutant
virgin
deserve
gravity
chaos
##sters
nurses
coordinator
##rift
elias
barnes
democrat
##yt
supporters
radios
recipes
broadband
helpful
zhu
negligence
biological
meta
ritual
nuts
danced
stern
mocking
##roids
soho
mystical
##mbo
poetry
fiction
superhero
pri
##tch
##ett
tucker
lacrosse
tuba
##emi
described
brandy
scottish
##ndi
##stone
strikers
mines
shuffled
alcoholic
inmates
pry
fathers
propose
believes
senate
##ffa
##kra
mater
libraries
##gam
interval
births
pupils
pup
##cano
diplomats
ballroom
##izzly
sharing
costumes
invite
swearing
sim
accomplishments
##kee
earnings
proceeds
bench
trolley
researching
manpower
##lite
##rated
songs
councillor
boiled
prayer
platforms
wires
converted
serbian
dina
##yne
##cology
##oper
sang
##wg
charitable
foundation
refugees
##nium
jumping
##mony
stalled
##7
##dry
##par
yorkshire
##zu
susan
morris
##gger
##write
honoring
sane
moderately
commando
mosquito
penalty
marilyn
##ook
electoral
##dak
ports
algeria
jenna
blackout
clarified
interred
##ference
equal
teenager
salesman
simpler
##band
rubber
##film
nylon
71
76
nitrate
##ls
needle
quilt
##olin
##ool
magnesium
urge
solutions
especially
lately
blessing
cliff
##more
rein
##nated
##rva
##vil
murray
paws
eighty
john
equipped
##ifier
delicate
gifted
##hit
custom
consult
twinkle
sandals
soaked
zac
barefoot
grip
branches
##stick
rockets
squeak
##kas
capitalist
blues
##cup
stockings
expert
spotting
skirt
##jord
##hos
##istic
##law
##yer
##urgent
mixer
exited
shout
##ctor
abdomen
##uke
prevents
transformation
##ddy
singer
otis
crow
masses
lexie
monitoring
travelled
incoming
tammy
fright
sheltered
maids
##walk
37
rookie
crunch
##osition
sucker
sample
guineas
fin
tomato
scarf
von
gulp
bottoms
drank
dee
strain
##pped
fang
clawed
##rp
alphabet
relief
pauses
chili
trilogy
enables
phrase
bordeaux
##pled
##ris
accents
##eon
peanuts
robinson
##uso
morse
olympiad
desperately
wash
slogan
##rb
klan
lyrics
starter
iranian
##meister
syllables
sentences
contrary
humiliating
urgency
##rke
poppy
##cock
dialogue
blouse
dialect
ms
criticism
andy
pillow
##rase
eisenhower
##ced
pious
phrases
##ance
louder
neighbourhood
favorable
chairman
ry
##los
##nie
katie
transparent
overall
yang
toxic
childhood
23
##sty
fusion
waist
ought
##bei
compliment
goodbye
ken
##zie
additional
circumstance
##icate
tasked
vector
##aha
calgary
metre
octopus
widespread
63
yacht
##tops
gorilla
mouthed
##oka
slot
##aby
aquarium
undead
require
monstrous
marshall
deer
spinning
roach
nailed
terminate
largest
fabulous
reborn
odi
##rut
penguin
ape
zombie
emmett
weeping
alba
gleaming
nile
##rti
##zes
billy
lizard
##hra
##dun
rooster
sexually
explicit
parrot
pep
cardboard
announcing
frigate
coco
##tle
centimetres
##tail
indigenous
ferocious
mana
##tees
cub
compact
##chester
strangled
##hid
skinned
##gos
finch
grams
leaping
panther
##anies
animated
cheering
crab
hunts
mei
stir
adolescent
##boy
coyotes
solitary
##uchi
rode
uber
##uga
crazed
moose
vernon
educated
owl
##mel
spray
shri
##vel
scout
peach
nana
cooke
##iel
josephine
roberta
benson
easter
locus
##mos
jenny
exhibit
feathers
gnome
coyote
bernard
##verted
hips
pantry
##oe
##gart
##pher
valve
tasmanian
stuffed
pudding
nationalities
fury
nightingale
sings
##uled
maggie
tow
##red
moor
cupboard
mixing
sumatra
abe
heron
perspective
moth
brute
##las
cockpit
##rch
indiana
geared
interests
equity
es
##mere
##lda
##tta
pumpkin
dana
tests
screwing
scripted
plotted
malice
prem
##itation
##pres
##enting
blessings
chased
illusion
adjusting
atom
##ization
nazis
spicy
variable
quan
##fia
foolish
genetics
maurice
rachel
revolving
campus
handled
weekends
fixing
poorly
frustration
anna
layout
##rly
arranged
logical
nate
gigantic
overwhelmingly
related
boon
kevin
##ung
##sin
statute
mechanized
standardized
copa
##set
hazy
distributed
implication
quo
ming
trent
fleeting
pleasant
vanity
fairy
wills
spontaneous
ferguson
##tens
permitted
##ama
recipe
##acy
##media
wired
1863
blurred
##now
kinds
shiny
##cie
deception
fabrication
indicate
indicator
newer
brighter
tighter
colonel
schedule
clues
owes
labelled
fuzzy
blur
spark
booming
rang
eerie
covenant
ambiguity
breeze
tremor
seymour
uneven
##tf
variables
matters
meaningless
##ocating
##me
##rdo
fading
##selle
detroit
cardiff
depends
satisfactory
hoped
##wr
nonprofit
corporation
valet
cater
##zin
electronically
dire
coloured
majesty
orderly
inquisition
##mot
potion
ernie
##rza
spence
gus
##ano
dakota
graduation
trevor
marie
percy
jean
##ov
mir
ordeal
eddie
prostitute
explained
undertaking
##ffled
deserted
factors
stripe
bass
mori
##arty
hillside
inventor
charred
restricted
##nsor
scope
relied
angela
attending
obey
shots
debris
perfection
receives
packed
noisy
imperative
curtains
steamed
sweetie
brake
##ces
##sari
timed
refreshing
confirming
rational
negotiated
vow
molecule
connects
warner
kam
##insky
dramatic
lux
essential
forgiven
settling
giovanni
appointments
dexter
splendid
closure
##ora
brenda
##ik
bertrand
parade
afghanistan
wednesday
##ound
satisfaction
dan
rests
smoothly
progressing
stride
dot
glee
##ast
gradually
regained
physics
logic
arbitrary
innovative
shallow
kidd
##cation
##pone
frankie
gaunt
wallet
blaming
surround
uncertainty
smoothing
forge
flexible
assemblies
outlawed
shook
recent
somewhat
humanoid
relying
lad
masks
##kar
steady
counseling
12th
medal
syndication
##ki
maris
virtue
biceps
onward
je
intact
magnet
##ura
##hai
##ja
brooks
feedback
##dr
convenient
preserved
precautions
torches
pitchfork
engagements
ministers
prominent
mps
preparations
element
occur
demands
crashed
204
##tier
runaway
commuter
collided
coincidence
casts
inspirational
hungarian
initiated
gripped
advertisement
##erian
##dro
tale
arose
kenya
##ump
rains
remarks
occurring
cooks
studies
##amen
josh
echo
aliens
secretly
critical
jumper
##ggle
impatient
unreliable
southampton
jeep
switched
homo
communion
##ester
relieve
dressed
thoroughly
##oes
heavyweight
mornings
dell
knocking
baba
##pac
footsteps
heir
pharmaceutical
evenings
hussein
##chen
yellowish
##iate
cone
colombo
cooperate
slicing
##sor
deploy
messenger
perceived
##ffy
##awa
urine
substitute
crossroads
sunset
hugs
fling
##fide
flowing
transforming
energies
##tv
shouting
shoreline
battles
dare
##tten
utmost
boats
porsche
bike
geography
##biotic
railroad
expertise
blend
##press
injection
glue
##hetic
tandem
extending
sling
pillar
simulate
##sley
legendary
donkey
##buck
combination
redistribution
iraq
##ctable
fangs
##ular
potassium
chloride
occupied
##hard
penetrated
thrusting
##sai
comprehensive
dams
distress
content
##iness
glove
handcuffs
pedestrian
malaysia
painfully
##ky
binoculars
thermal
glance
##smo
bland
##nga
molecules
##pha
harness
##ert
romeo
quotes
nora
achieve
voters
slowed
vinegar
cruel
employer
devastated
naive
primitive
haunted
##ove
saddle
##maker
stove
##ited
##sa
33
##llie
zinc
yeast
##hy
##hea
motionless
sticky
flanking
lightly
budge
yielding
permanent
galactic
uprising
mayo
##nna
packages
overseas
##ople
honored
candidate
##was
marketed
120
legally
banner
fiancee
writes
troubles
clearer
identifies
configuration
##see
calculation
integral
olivia
frames
y
af
##firm
tabloid
loosen
restraints
solving
rejoin
##rise
bhutan
##gle
straighten
##tie
##hered
symbols
cody
##rrie
majority
##lica
##ope
trojan
retire
##onne
cables
kitty
yourselves
belgian
##aro
##phones
models
electronic
shack
bucket
grinning
chunks
defeated
todd
selected
##crow
fees
##bilis
auxiliary
idols
vantage
token
plates
centre
downing
eliminate
##rral
ri
elena
mueller
dismissal
rejection
decay
fia
##dell
##nto
donors
sharpened
refer
ping
anomaly
amplifiers
agony
##mail
prosecution
arguments
passions
discusses
exploring
##hire
##han
##deh
##yde
bombardment
apocalyptic
ratings
tiles
erase
merger
methods
newest
shaw
raft
vicar
benches
contacts
canterbury
vatican
##als
frenzy
##held
##pse
##lden
##stein
##sky
galaxy
##cala
ideological
##umble
magnetic
contribute
maddy
playful
showdown
identities
patriarch
replaced
hare
shipments
wiener
licked
instrument
##mbled
sponsorship
irresistible
impulse
norm
fates
textbook
visitors
yell
elbow
##tist
castro
pitching
deceased
##ag
disturb
sharpe
loudly
pleas
inflation
lounge
probable
disappearing
situations
marries
domain
bugs
strengthen
intervene
picnic
arises
disclose
updated
logs
##ira
expects
alerted
lasers
provider
dvd
pursuing
composite
tanker
sailed
tn
presents
##nova
healing
derelict
server
deadline
tourism
##mas
##ked
journals
professionals
cindy
lin
enters
cardinals
##clave
traces
##sb
example
groves
granite
sally
patterns
##dle
unrest
##ads
##onic
leaked
gretchen
regina
ticked
melinda
greg
inspect
##nched
nothin
european
fda
moss
atmospheric
grounds
glacial
sewage
plants
##por
##ates
drains
peat
accumulate
hank
##rick
submerged
theirs
pets
##cial
significantly
settlements
##scope
mri
powder
genie
banning
hysteria
##tower
announced
##sper
cornish
databases
##oids
##like
distracting
goofy
trusts
expands
afar
##uated
actors
sleeper
triggers
packs
index
flicker
accordance
thy
temperatures
exceed
cowboy
salisbury
newton
explodes
developmental
##pet
##rov
corrected
sniper
lions
transform
instance
##az
##aki
marian
##cing
madagascar
detected
##ows
innovation
warn
##ata
jolt
staples
staple
maps
processes
mysteriously
resulting
influx
260
disabled
obligation
headlines
##bling
holloway
##eer
rooted
carpenter
ticking
gerry
soo
appendix
bursts
##cky
lass
##orin
clumsy
landings
##wa
tc
kei
mister
releasing
archaic
fragile
positively
relationships
indifferent
directed
evacuate
amulet
burrows
assess
forcing
##kiewicz
demonstration
myth
oracle
##bar
##aged
##don
##enter
testosterone
colorado
trident
ou
foundations
christianity
urged
lobby
mutation
##oy
domino
mourning
##sed
q
staging
groundbreaking
min
circulating
storage
emergencies
##igen
halt
tones
dynamite
execute
##clusive
tuberculosis
leash
##pired
exception
##slin
stark
##wan
lend
expanding
breakers
disagreed
eater
forms
##oke
rica
catastrophe
booking
##lter
embryo
patrols
enhance
equality
gt
ceased
cardiovascular
continues
julie
remorse
shrimp
##weed
tangle
propeller
zurich
newfound
vegetation
sutton
lex
pete
fern
blooms
##mpt
delays
fuels
spiral
fond
arrows
dipped
##xin
##rogated
tempted
predator
##unce
singled
startled
etc
racial
##opa
##rdi
##ids
rape
accusation
embarrassment
telecommunication
determines
users
transmit
gestapo
##shot
##missible
balloon
label
##oma
##lies
parting
budget
lust
regression
freeing
irritation
##ulf
locks
jameson
geo
teddy
proposes
viper
poses
rouse
populace
peacekeeping
mandal
##ore
memo
##rized
farther
naming
segments
inquiries
poisoning
drastically
reduces
suffers
doyle
faye
##ede
jarvis
##aneous
##acle
pandora
needy
##hin
towns
##folk
doubling
appropriate
outlets
##coll
##ider
dense
rub
cruise
belize
proximity
designated
wright
blinding
drift
daytime
colour
input
heated
sd
attain
thereafter
rene
december
mars
diana
economy
regime
adequate
explosive
##ities
##ods
competitive
personalities
offers
estranged
writings
##uted
sufficiently
compromised
##lf
retailer
defiance
norms
taliban
hulk
knowledge
snap
rails
ballads
auditory
phenomenon
reader
distract
electronics
essence
difficulty
prop
##con
subconscious
larvae
vaughn
background
conspicuous
properties
wander
##pop
termed
conde
production
disperse
binds
strongly
soviet
##tri
bind
##bber
monitored
illicit
illegally
snorted
calculations
dino
##zzo
adaptive
genetic
captivity
corridor
coastal
remainder
paragraph
richmond
##mute
heck
investors
##bate
factor
##land
440
##cin
##tc
##are
##going
tracker
comet
problematic
twisting
pensacola
tubes
earnest
valiant
tug
buyers
shang
heating
evacuated
slammed
bankers
##iga
##glass
fragrance
##yse
##iled
ample
59
##phon
##itan
##ator
revive
amelia
amid
##ala
lionel
protecting
convicts
relevant
shields
mating
##bb
##its
lois
##llin
serves
##missive
northeast
scandinavia
pigeons
hassan
airspace
peacefully
batting
handles
##anial
compliant
succeeds
devils
powell
salazar
aba
##lone
ecosystem
mccain
##esthesia
understands
##iro
cancellation
progressed
fatalities
pd
limousine
disclosed
ages
tutor
sleepy
carving
ache
##wark
recorded
economics
assign
##ations
intrusion
spur
murderous
surely
##ego
maiden
careless
confederates
stall
treat
finishing
escapes
stupidity
boiling
##anor
ecstasy
momentary
##ssa
discomfort
goin
compositions
briefly
efficient
diversity
##hre
astronauts
historic
charles
concepts
##ying
creates
progression
##uli
175
mondays
900
sundays
##nio
shipped
tattooed
initiative
rosen
canceled
##eno
trailing
responded
moines
teaches
boarding
##cate
##sburg
accommodation
##paper
migrating
##due
beverages
consumed
##week
ling
##uin
figuring
nightclub
produced
##wives
buster
adorable
trois
flaw
allows
##burn
shuttle
den
##nin
teachings
dharma
##var
##tian
maid
gallo
##ws
sustainable
efficiency
##vision
designate
smarter
##udge
homosexuality
municipal
privileges
breakup
raped
aus
cope
destroyer
decorative
spontaneously
dorm
##dan
surprising
##bing
experimental
##ibility
noble
niche
arches
pose
curly
improve
##ile
##ptic
adapted
credibility
promote
introducing
replaces
expected
utility
##cko
vogel
dyed
alt
lara
electrode
ek
jade
channel
##amina
medications
aggravated
jesuit
instituted
durham
builders
dilemma
expulsion
checkpoint
##bau
29
prescribed
cork
slapped
halls
wishing
kilograms
silenced
froze
##elling
scots
bravery
aid
progressive
##rr
teasing
pleasing
steven
pneumonia
leaned
blasted
rib
##flower
##gul
117
viet
cong
swollen
brothel
##ida
poem
referencing
##post
tango
symphony
villain
##fa
january
18th
23rd
01
1998
physicians
contributed
3rd
stream
tokyo
jan
february
1900
26th
bret
##agne
2nd
27th
brisk
irina
sable
scotia
montreal
asa
eighteenth
04
4th
##rnet
endings
beginnings
moscow
##over
ecuador
examine
clusters
hurling
insults
##iche
hid
##brates
bach
psychic
pouring
##vu
mounted
affirmative
##ller
tre
packing
variance
abigail
##hema
flights
outdoors
wandered
needles
##di
##mins
dash
jewels
arbor
drawers
relaxation
stimulation
##pool
heller
depart
composed
hon
correspondence
exercises
developments
whisper
digger
##atter
##roup
herman
potatoes
bodyguard
yellowstone
lax
pastures
dusty
emptiness
lush
comparatively
expanse
drainage
canals
siberia
gangster
feeder
sucking
tide
climbed
##bbled
vowed
manny
cervical
julia
mallory
trials
##terol
amor
##tized
computation
07
highlights
passages
##vina
manila
##hl
mutual
tito
flipped
pumps
sermons
guillaume
jesse
tucked
researched
biography
stimulate
jules
##uk
orphan
deeds
8th
eighties
ancestors
harvey
pamphlet
tibetan
sexes
mystic
philosopher
legends
technical
flea
definition
##mm
encyclopedia
##lp
divine
widely
circulated
honors
##enberg
sutra
booklet
spells
##tment
dispute
##ak
reads
fashioned
homemade
comedy
ledger
czechoslovakia
napoleon
christina
junction
log
harley
meade
publications
poems
translations
texts
oral
histories
yorker
boris
victorian
autobiography
nutrition
profiles
abduction
tony
printing
orchid
unique
crimson
thorns
##rys
##hem
bud
flawless
weave
plucked
##bby
iris
depot
experiences
lotus
##iferous
##cles
##lip
hilarious
ace
comprehend
##umi
##nate
##raction
convergence
##rder
beams
##sman
gesture
hemisphere
braid
tempo
streaks
##aj
allowing
opposite
##beam
prism
xi
##inus
simulated
tanned
thong
sinking
downed
##written
timeline
knotted
congressman
cosmetic
proprietary
provision
##worm
##illy
##ava
derry
kerry
##oese
gloom
tropical
currents
bowling
reclaim
scripture
##ught
businesses
serpent
takeoff
nebraska
prophecy
describing
messiah
nell
waistband
stalker
peasant
enigma
tire
##nad
freshly
paved
etched
temporal
cove
barge
canoe
shepherd
belt
constable
##shed
reliable
##rter
billions
##uring
mountains
##oge
brightly
guided
circling
habitat
posterior
ridge
##dale
fortified
ramp
domingo
ford
rift
curves
tanzania
congo
tuna
woven
142
elastic
maternity
##ban
##usia
peptide
plato
##nic
liner
pipeline
violin
tails
tease
schumann
##boat
buzz
##rgo
##elt
##tium
jeans
glacier
tributary
flaming
strap
buckle
discarded
achieving
staircase
winding
notch
rhine
constance
obeyed
reel
meanwhile
southern
cobra
moat
sails
140
characters
springer
05
emerald
##cher
partnerships
fatally
softly
compared
risky
typical
crescent
arcade
striped
##heard
granada
plaid
##km
barking
##lle
martian
ominous
glow
marrow
centres
mora
eel
involves
winston
pedro
strapped
##rak
coal
hermes
snail
shitty
humiliation
–
causeway
##ahu
maui
##belt
irregularities
liz
henson
armchair
timbers
fur
clive
##ease
curve
handkerchief
universal
cecil
improved
potent
forming
tennis
extension
fringe
##uve
skinny
abundance
circles
##cycle
loaf
paisley
##ilo
tunnels
alligator
##lace
##rd
stairs
legged
feng
##creen
docked
79
basin
slid
silently
##erina
saloon
stung
milky
##nesia
persons
sandstone
cursed
trousers
exponential
intersect
alternating
drivers
connecting
forum
palatine
denver
transfers
guatemala
righteous
##ange
nonetheless
duc
3000
collar
apparel
platinum
upright
##tooth
jewel
carriage
aqueduct
fuse
arc
mack
trench
tidy
frenchman
operator
chew
instinctively
antagonist
cheeks
cutler
surfaced
mein
plume
##xious
##breaker
##lad
projects
hs
yue
hurrying
##hong
##jing
rivalry
flavor
zhang
dorothy
directive
reconcile
##may
moi
franchise
caf
monte
##isto
remy
pitted
libre
traditionally
lime
wedge
salad
lemon
cola
##qu
margarita
iced
dixie
chilled
brew
slices
pg
##zzling
olive
chateau
##dda
shakes
bourbon
gibson
syrup
canadian
mic
drip
impose
maple
##sf
##rma
export
##dae
doug
pitcher
##ken
##sberg
fries
##ffe
##sha
ginger
ale
dub
##bation
66
tipping
calming
##jit
snacks
riddle
grape
##berry
bean
nave
fulfill
##ush
rim
stout
poured
##j
##rita
reese
corporal
##vi
##gnon
blanc
inducing
##ill
somalia
waiter
stiff
##das
mango
##zz
nipple
papa
adi
##pose
##poo
laughs
interrupt
gale
##nay
aviation
##bbly
diminished
herb
##grass
##hey
shaken
stirred
##rry
cass
##ium
lb
1943
cartridge
hiroshima
ministry
doo
lighthouse
accumulated
directional
projectile
##4
pristine
##rew
##ings
respects
represents
##ode
almond
atomic
meteor
antarctica
contained
propelled
drone
commemorated
petals
valor
##lr
nickel
torpedo
favourite
##rogate
thigh
hilton
##itt
aimed
ironic
murdering
pushes
grazed
deserved
##making
farrell
petty
##nan
##gga
title
stunning
##eye
peter
fuss
cadet
kilometers
##cked
747
aircraft
alaska
humanitarian
damascus
##tag
grounded
##fk
##ya
huey
philippines
reconnaissance
pilots
fueled
nighttime
crusader
flown
chartered
transylvania
jeffrey
garth
westbound
##gal
freighter
##owed
pentagon
##adi
##ette
coats
sierra
recreational
piedmont
880
paulo
zeppelin
bomber
boeing
riverside
indus
##iva
##nia
linear
incapable
compassion
harris
hawke
bandit
gulf
upgrade
specially
72
hamburg
prototype
##lic
adriatic
##aran
spaceship
helicopters
30th
mig
jolly
drones
appalachian
##rat
##osphere
biplane
veteran
cessna
proton
raider
beech
##craft
##gler
crane
soaring
addressed
jane
fairfax
unmanned
wilbur
geneva
boarded
seated
arkansas
wreckage
aero
##rous
september
10th
funnel
revolutionaries
hawk
asphalt
dolls
involvement
rubble
##ress
tong
apartments
kay
brighton
##quil
hamlet
worcester
massachusetts
##ement
ox
jacksonville
irrational
##van
ethics
cactus
fir
##col
##bery
alteration
vine
##iad
genetically
##fles
arnold
likewise
guinea
##nos
cm
lest
kindness
formidable
predecessor
envy
##mps
claire
puppet
detention
tal
##isman
agriculture
versions
distinction
install
interviews
tennessee
pottery
preserving
scuba
diving
hating
sarcastic
##vinsky
##tto
pulses
speculation
ang
##rier
debates
aug
gorman
vary
rebel
chiefs
cube
##asi
ceilings
supportive
dip
ska
##tub
wages
##kers
darkly
undefeated
cleavage
ellis
##nage
jogging
complexion
tools
retention
fulfillment
##city
##chi
prefix
landfall
killings
voices
robert
tendency
##bol
jackets
circular
brunette
knot
iteration
coloring
bs
traumatic
hancock
downstairs
carts
totals
affluent
cannabis
microscope
mechanism
logo
##eit
##iss
handwriting
##uising
##gent
omar
##fer
bruise
opinions
aggressive
##cton
##uda
wreck
##anne
##unds
##ych
height
traders
realistic
bavaria
gathering
blunt
aisle
heartbreak
cheekbones
miracles
farewell
aryan
judaism
outstanding
funk
##unes
curled
shifted
##dler
barren
##rba
provocative
joining
tsunami
influences
jana
##cek
mandate
generous
##cured
##hum
##mon
strongest
deepest
fry
gel
verb
mediation
dil
silicon
thumbs
realization
refuse
##wu
saliva
earthquakes
strains
cement
duke
slender
feather
preparing
weaving
##har
##isan
cane
##finger
filling
reserved
##centric
pillars
##uet
##oll
##icular
nutrients
drifted
inspire
##apes
wand
arson
aerial
pearls
carrot
##care
##ical
cords
yoo
posts
sophisticated
##orous
anatomical
russell
ram
marion
hays
arthritis
aluminum
##odle
necks
drugged
##ona
introduces
simmons
garland
vs
##jong
gears
nightly
informs
worthy
auditions
gearbox
filthy
##unk
outward
motive
scandal
amendment
supervisory
heel
ongoing
waterfront
statistical
reggie
yin
popcorn
vines
aids
faithful
sammy
elm
cypress
willow
tossing
genera
kernel
eucalyptus
birch
rowan
varieties
evolutionary
subspecies
147
191
zones
rejects
plaza
specified
165
roger
import
tavern
humorous
bathrooms
plumbing
bakery
kali
##nda
sec
alice
tattoo
fitted
hal
baking
donation
sigma
melissa
accidental
burke
inuit
philosophical
bulb
rotation
epidemic
singers
stumble
tommy
##sche
unauthorized
uneasy
porter
mas
##rade
##hn
##ographic
belfast
empathy
amusement
##ysis
rumor
transit
controlling
sloppy
sponsors
august
misunderstanding
vitro
##lization
##vah
kitten
abandonment
##tiv
venture
barbie
##fusion
##station
workout
casually
massage
##nen
pharmaceuticals
##iation
stationed
orleans
celtic
casualty
revolutions
divide
spectrum
intimidation
mani
##cure
newport
utah
unprecedented
economic
seizure
exhibition
primal
bahamas
newark
perished
generosity
##carriage
decisive
##uni
##gated
##stan
sensible
debating
##emy
comprised
smacked
proving
pavement
whistled
numerous
jurisdictions
macdonald
rbis
toby
##dent
##urg
##ency
owning
ducks
placing
##50
epic
treacherous
commandant
unexpectedly
compression
composer
firearm
venue
narrowly
avoided
torso
clermont
##rran
##rco
beirut
diverted
…
saskatchewan
archive
timetable
geology
experiment
pixel
outing
radar
travelling
divisions
discourage
##bbing
unsuccessful
helsinki
##ologist
granting
overhead
coordinated
literal
figurative
##aith
rebellion
##uven
##girl
adventurous
##ience
##national
addicted
accomplish
##ym
##eum
ur
drummer
hush
##ppy
crusade
volcanic
nausea
##inations
gaming
youthful
celebration
heaved
coastline
thorough
anniversary
wilde
##bles
heroic
measures
##cea
moses
quentin
distributors
##oop
scott
tho
cleansing
although
cipher
pads
##rize
450
disastrous
instructors
##lessly
congressional
triumphant
bonding
ulster
mari
welcomed
monroe
presentation
##itarian
overheard
solemn
concerto
##erved
##open
repairing
bribe
usher
appealing
motorcycle
gideon
trumpet
##stand
dared
celebrities
##uh
hiv
baroque
##boarding
##ttal
fines
##eving
moonlight
servicing
interrogation
pigs
discs
screams
##helm
steppe
absence
53
constellation
orion
application
manifesto
testimony
##tance
nasal
tending
cows
hooded
2003
neil
armstrong
tying
linguistic
audition
establishment
spat
ultra
##11
socket
borne
trophies
replay
pounded
unbelievable
repeating
exhaust
compulsion
disappointment
barons
eruption
##ude
fraudulent
bursting
increasing
magnitude
threatening
daring
bikini
211
43
fountain
##ilation
lecture
philosophy
landslide
thailand
maneuvers
exploration
clarify
geological
##drum
jerusalem
wagner
liszt
weimar
defences
harrow
wraps
reunion
##row
infirmary
##zzle
brow
adventurer
papacy
global
graphical
takeover
sovereign
proportions
knights
jen
awarded
demonic
mesopotamia
blasts
bothering
grossed
betrayal
130
bombers
crate
elimination
hasty
mandatory
ruling
discussion
touchdown
minor
evident
communicating
nominated
nobel
surgical
fingertips
laura
##ops
leap
merit
preview
##fra
posthumous
##yd
##proof
glimpse
##lling
vertebrae
confrontation
sylvia
odyssey
trajectory
alfredo
attic
stirring
protests
##itive
peoples
190
edition
avant
garde
hairs
##tyle
virginity
cologne
deluxe
##corp
stumbling
##nty
##nator
scrambling
##cot
slaughter
activist
swings
opponents
depths
ville
plotting
##ographer
strategies
increasingly
elevated
causal
pact
injuries
bombing
scars
rhea
madness
eruptions
##ntation
unnatural
poetic
recital
saga
unveiled
##rued
breakout
mod
##yad
expressed
angie
surprises
41
orthodox
logan
interlude
segment
workplace
munro
hart
measured
##erate
patience
laughter
lasted
continuum
renew
groove
williams
horrors
operated
absorb
francisco
obituary
##dance
adjustment
gill
##iam
strands
haydn
sonata
meaningful
safari
strangely
##rand
longing
forbidden
nike
algorithms
##pan
confiscated
anchor
chatter
sunny
sterling
spoil
boycott
bangs
x
trooper
jerked
absent
producer
oxide
##20
ultimately
infrared
##gation
confuse
sulfur
dioxide
##eva
##iving
odor
##cino
##genic
detectors
hydro
nitrogen
unidentified
##nant
##ctions
muscles
##hart
populated
brewing
134
tendencies
clutching
sodium
##sian
ku
##mark
stats
absurd
##tr
bluff
##gin
amnesia
justified
defender
bison
##ander
satirical
faction
##itz
filmmakers
##flight
boxers
salsa
topping
foremost
##izan
script
comedian
makeup
streaming
irwin
kerr
photographers
champions
clocks
movements
asthma
wool
fabrics
skater
defined
precision
invented
researcher
##tech
##nology
marketing
chess
##play
sportsman
##sur
##lom
##vis
convertible
shanghai
##nese
barr
##rath
coughing
surrender
emma
##olo
liquidation
fisted
yi
ching
winchester
cartridges
imaginary
##has
muddy
drained
servant
##cos
expanded
##drop
cheek
jang
famine
trickle
##ade
clothed
rudd
manly
##weig
##sk
chiang
illustrious
offices
##idge
seller
downhill
weakening
bled
aces
tis
somme
conservatory
ella
rebellious
bully
ranked
##neer
eyelashes
suggestion
starring
##opers
rhyme
betty
marche
nay
linda
emphasize
##grate
pleasures
decidedly
nes
sanitary
stale
trance
##master
##utus
tack
rainy
civilized
encountered
ronald
hutton
##gues
##ien
##dly
recommend
impressed
##ees
##bt
atheist
##agger
wrinkled
assured
meantime
finely
aaron
remotely
jennifer
venice
woodstock
bruised
##kill
funky
##tering
accommodations
blushing
irony
engineering
novelist
millionaire
aiming
anatolia
judging
empowered
bachelor
bruce
##coming
admiration
denise
obtaining
overs
##tale
##nted
preparation
##lative
regardless
grange
skipper
accountability
reliance
fraser
##dl
manor
glamour
concert
##hoe
frazier
regard
mathematics
liberties
ned
associations
##gins
controlled
statesman
feral
aged
dyke
delighted
karen
mattered
quay
lacking
praise
alabama
swallowing
info
foods
speechless
unsafe
##tar
##mount
lifelong
##gus
clarinet
gasoline
piercing
cocaine
##acious
privy
reception
shielding
electromagnetic
eighth
spice
chihuahua
petrol
ow
sincerity
amour
turkish
functioning
grammar
mummy
##active
witchcraft
##yn
##thesis
##lc
stephanie
harlem
participation
aroused
twitching
primate
detecting
cooperation
grill
gerard
reconciliation
indication
oct
##avian
riley
49th
stoke
##lee
tina
##hang
stains
##icum
rabbi
quad
##ratic
basis
##fle
##stle
##ply
camouflage
pipes
tad
liza
##eti
clay
disagreements
##ras
##right
##ritan
pause
jefferson
##lm
##ents
##war
kits
gust
##ishing
opus
gabby
morton
_
devoid
##asco
uk
sparta
##ieving
nostalgia
relentless
suspense
excessive
##cchi
pest
switching
sensations
consolation
outline
##rain
remark
differences
retro
##tted
advertising
##db
challenging
curtiss
sensitivity
clerical
inflammation
beverage
usable
controversy
##kan
dail
prospects
##ico
flexibility
rosemary
edges
manipulated
##path
artifact
reflective
reflect
slower
gail
qaeda
negotiation
yong
wayne
##nd
bracing
encouragement
morale
80s
##mies
offence
warily
mildly
##ciful
estimated
desirable
suggestions
overtime
peers
pang
nickname
succeeded
improvisation
##zziness
employers
fraction
translator
##tsu
demeanor
##aba
##yu
donnelly
##eric
blended
cedar
sore
suburban
fingernails
moths
sustained
nicky
poke
disagreement
##gen
baked
flaws
levi
tangent
desperation
jasmine
##arm
##aco
##logy
grapes
sharon
bribery
disturbance
##bbling
linking
##itating
cinnamon
arrogance
sas
tobacco
grille
cookies
combo
##oic
royalties
##illa
##ek
residual
creeping
residue
ud
ebony
morgan
##rud
##ridge
huff
contested
##pathy
sonia
discipline
##gating
surprisingly
mustache
sparkle
preservation
applause
##outh
nutritional
drenched
ambition
##eria
##sun
retail
xiii
1700
differential
axle
acre
westward
imports
chilly
wellington
##rigue
##sle
immigrant
##pio
continents
db
elf
cyber
##tron
superman
johnny
rhymes
pity
lazy
racist
writer
inference
nos
coordinates
disposition
samson
##verse
orbits
chavez
coverage
compiling
##stic
kyle
humphrey
##minate
##tical
disk
bedrooms
briefs
texture
##nished
choreography
flirt
eric
jerome
morrow
frustrated
cozy
lame
##meyer
elves
ward
ucla
infections
frightening
buttons
evidenced
cummings
spying
smyth
willard
scratched
samantha
90s
rustic
aesthetic
110
warped
lizzie
volunteered
##ceptive
graph
curry
##ndo
wildlife
schooner
slapping
margin
error
informal
ligament
incentive
onions
boogie
pollution
expand
lila
cinemas
sloping
translucent
membrane
intimidating
complexity
rodney
void
savannah
grassland
##oz
rave
loneliness
##nel
##break
prosperous
##bank
jupiter
inland
uninhabited
vu
sadness
1892
travis
##ige
dolly
oval
defendant
anarchy
##bbs
##writing
lattice
blackness
manning
ravaged
##ship
blackened
flaps
rotting
vietnam
stalks
fjord
dwarf
bermuda
vegetarian
relaxing
roosevelt
presidential
##urne
ev
turf
moist
terrain
ambient
visions
##hend
##eu
marianne
lamar
nowadays
##pressed
##iful
barn
fumble
##uto
rothschild
61
seventy
##lais
##oxide
jimmy
##izer
rubbing
sipping
##hammer
dom
denmark
nineteen
ninety
##dust
bile
capsule
##cap
##sul
dye
##tose
freddy
terry
womb
steadily
forwards
cradle
missouri
inevitable
cared
dora
##pper
##rl
crept
highlight
##pp
acquaintances
121
condemned
loren
unmarried
hairy
balancing
scarred
##ios
perpetual
enclosure
delivering
cylinders
prof
negotiating
tampa
gunpowder
streetcar
hiking
brandon
tanya
##ament
shattering
renal
acids
screening
persuasion
##rip
temporarily
downwards
##dding
171
173
##00
illness
cretaceous
##zi
doubled
wallace
structured
tempting
western
lewis
senators
penitentiary
researchers
devout
representations
insects
geometric
##hony
fifties
gripping
kg
##xie
160
unseen
93
146
144
banker
marker
##lers
kara
##unas
nak
jamaica
mutiny
disorder
aftermath
reformation
squat
100th
kindergarten
openly
##hab
1898
symbolic
21st
pioneered
founders
resisting
props
einstein
communities
scholar
wizards
##uary
strides
xv
##llation
vibrant
oriental
lil
footprint
##ators
explosives
formulas
knots
bidding
fours
##core
feature
bowls
##mt
alleviate
lantern
steep
cassette
belgium
chants
vaccine
receipts
cereal
biscuits
spaghetti
marijuana
hodge
##pod
##rama
plots
russ
smash
prose
##lev
##founded
##any
wade
palms
restless
easiest
attitudes
unaware
evan
pursued
incomes
lifting
reduction
quarrel
stem
hampshire
frankfurt
##lars
##olar
oregon
headline
homosexual
consistently
memorial
alliances
townspeople
ole
dealings
disciples
pena
braves
*
viewed
##efe
outgoing
fascinated
shocking
villages
calmly
anxious
backyard
external
crown
meetings
adopting
zoning
intervening
depended
batman
census
##worthy
tolerated
distrust
defend
waving
bennett
##ditional
##scribe
gotham
gandhi
bolted
bending
stunts
longest
##matic
associated
prayers
proudly
ignoring
steele
virtues
##oted
ama
ashamed
entertainer
continued
storytelling
computing
habits
myths
partially
ft
patrons
defendants
prosecuted
libby
supported
jessica
##ettes
compliance
villains
pace
arabia
rumored
revival
dome
oakland
franklin
thorpe
residing
korea
continuing
nur
eternal
maintained
pending
2004
grasses
bounds
lasting
perennial
magistrate
appliances
stationary
nations
decimal
equations
unanimous
08
immaculate
127
5th
1958
1972
1986
97
##0s
katrina
2005
39th
70s
storey
1990s
providence
declined
gurney
culminating
upscale
damp
randy
allegedly
interior
pius
editor
##ear
sect
knob
commenced
shreveport
scored
filter
assessment
norway
turnover
rigorous
humidity
unison
jays
melanie
benton
persia
bela
sax
167
elbows
completing
realising
hardware
magma
mountainous
##pment
extends
frontal
climax
##rod
advancing
##bia
blinded
jiangsu
stressed
applying
optic
corrupted
tormented
ornaments
stretching
ethiopia
suggesting
##antly
swam
sanity
blah
columbia
katherine
minority
##tern
wrestling
##night
persistent
cache
repeats
compatibility
thump
freelance
##uing
organizations
##sling
foreman
hicks
justify
noises
enjoying
44th
reproduced
northwestern
incentives
touring
repertory
havoc
canada
witches
##tly
1999
dispatch
guts
expansion
continuously
quoting
interacting
chatting
giggled
gasping
taunting
##agi
auditorium
scholarship
leases
fortunes
##fication
shriek
stanton
trapping
laundering
flashing
shen
##ando
##holding
##mbling
##laze
distressed
systemic
stables
jurisprudence
acceleration
erosion
##voking
nonstop
cheated
brushing
combustion
##zee
sultan
assessing
preaching
inlet
circled
avoiding
resides
conducting
academy
treasurer
revolves
feeds
blinking
auburn
admiral
heresy
brotherhood
clung
defaulted
##verance
predicting
subsided
structures
youngest
##stellar
indefinitely
##lke
haley
dangers
##standing
disputes
endowed
preached
collins
belle
microphone
retains
pinched
recurring
developer
apostle
owing
finals
##chu
fortunate
deliveries
stranded
varied
##ryn
##riz
recruiting
artificial
landscapes
encompassing
wells
##ago
migrate
ferry
hudson
lola
freeway
emphasis
uptown
##ova
spruce
southwest
melbourne
ui
primarily
defects
##roving
quantum
thankful
blaine
##ory
fantasies
chronic
##dicated
##writer
claw
nepal
uganda
portland
lamb
panting
trumpets
imposing
interrupting
mitchell
docking
diffuse
abdominal
tenderness
towing
regarded
restraint
citing
expectations
misses
##gizing
retained
carroll
trailed
rallied
eagles
playoffs
sparks
consecutive
reign
##liga
protocols
drowned
northwest
lads
##uity
endurance
peeled
mentioning
reminding
##ddling
shaking
charts
listeners
synagogue
newspapers
connecticut
bestowed
oblique
squinting
reference
cape
##rup
##xed
roadside
respectful
stubborn
kelsey
instincts
frustrating
##aries
norse
folklore
daze
carr
clan
subcommittee
forefront
priority
films
appearances
traditions
og
racers
finances
##bor
calves
fastest
##bula
cinema
reply
artists
rita
##hill
ancestral
imply
admire
technologies
goa
slipping
plot
##nor
donate
madeline
malley
harassed
barrow
vaults
showers
comments
warnings
hurricanes
advisors
1938
horseback
dunkirk
bowing
scraping
helena
landlord
unsuccessfully
frankly
reacted
doe
deficit
##dates
aa
##iti
greenland
##cola
collects
dripped
##nical
millennium
compass
##pole
peaks
##bal
revolutionary
ninth
convent
noted
frowning
gazing
pitchers
catcher
glancing
mysteries
dresses
giggle
charms
adjusted
publishers
##oj
lau
85
##balls
formation
slopes
##dition
haunting
insists
revelations
patiently
farmhouse
badger
##bow
##icide
detained
lifeless
deserts
observe
##ecure
##ones
outsider
provoke
suspend
claiming
dentist
##piration
necessarily
##iz
1995
announcement
bryant
stalls
buckingham
311
regards
harmon
ryan
pastry
synonymous
messaging
thinner
kathy
smelling
bouncing
tata
contemplating
dizzy
accounts
defended
##sett
reasoning
snort
fiercely
pediatric
chases
retreated
studios
stat
cheaper
subterranean
premium
heinrich
pedestal
boundaries
prisons
sherwood
blending
juliet
torah
lineup
controversial
knitting
minions
##oed
georgetown
lending
##ulia
khan
##lton
santos
breathless
consumer
creators
weaponry
feat
availability
proposed
##nde
founder
##jured
dept
paints
quota
rated
interchange
fascination
decoration
languages
##vary
flickering
supreme
daytona
superiors
chant
mongolia
pendleton
pleased
poverty
mock
aqua
##rius
breasts
hooves
defending
hottest
howl
submarine
shivers
sasha
empress
anastasia
clicked
knit
specimen
##wald
bulky
##lub
##bers
mercenaries
sincere
fantasia
paw
reynolds
nobleman
bernie
admiring
yielded
unarmed
portions
calcutta
delhi
stocks
niece
blinked
vapor
inmate
recognizable
tudor
lookout
jae
jun
nucleus
medieval
inherently
haste
rediscovered
silhouette
##lian
clarity
berkeley
splitting
##ilia
raging
##ima
religions
owen
examples
muted
##ms
beta
##aman
##ners
involuntary
spartan
##ined
##gible
imperfect
indo
commonly
outbreak
undisclosed
##inates
enjoyment
uncommon
##vre
ferns
algorithm
specialized
secular
220
remedy
simplicity
##rich
##wide
passive
sequences
conditioned
besides
thud
triggering
intellect
##rdial
compatible
##vered
replacements
venerable
reassure
whereas
braden
syndrome
calcium
seismic
##ino
belief
jurassic
##onal
berry
transmitter
faux
fascist
##nified
rites
manifestation
thrill
##cts
portable
##air
barrels
abortion
tingling
prone
hypothesis
hybrid
catalyst
resembled
supplement
vibe
frontier
warfare
stalin
develops
##leader
dissolution
payload
counterpart
##lizer
meditation
##scent
bacterium
derivative
coa
##chemical
##iens
##rner
precursor
preliminary
shaping
evolution
metabolism
accelerated
heightened
resurrected
##lled
solvent
isotope
physiology
semiconductor
tile
spawned
numerical
sequence
##vian
##bill
##culture
reflex
crafts
infinitely
renewable
hindu
##dou
bizarre
nectar
heirs
chanting
honourable
##zza
hormone
billed
twilight
##cki
##ellant
particle
indirectly
parasite
hades
hercules
spores
parasitic
fungus
##yce
titanium
ligand
bollywood
##gic
thor
pea
ric
##sas
##gor
planets
taps
##cter
##tat
enabled
weaknesses
##asurable
##arding
theoretical
abnormalities
pei
development
##att
##lore
tangible
collective
displays
hospitality
prolonged
##dern
neurological
disorders
implicit
displaced
##put
incorporates
violating
colombia
##ale
mammals
goodwill
flair
homecoming
##oked
##isation
dwell
environments
virtual
beliefs
malaya
chromosome
collisions
specialised
ethiopian
highlands
dna
##osis
##claiming
##scu
##rity
mixture
##utation
##position
popularity
##hor
priests
chariot
##urai
textures
beit
alpine
##made
venom
adolescents
stability
##psy
\
np
hypnotic
reflection
purity
freud
brawl
judged
tolerance
##lty
yearning
##bos
testament
handler
##athing
indictment
capitalism
##nger
originates
holstein
beetles
##lina
sentiment
bubbling
scanner
superstructure
##ath
##etic
shaman
columbian
##bic
##rum
##itis
negatively
opener
##dina
distinct
##ination
##phobic
rite
coping
##vot
slung
isolation
##lithic
sweeps
dependency
##sso
impairment
penetrating
##iec
##trom
enzyme
internally
inferno
##bria
polka
acute
##otte
composure
mali
##gnant
luckily
astonishment
sinister
enjoyable
lesions
horrific
thwarted
replicate
##blood
##fleet
tightening
tactic
##breakers
combining
generic
seizures
fungal
armoured
latino
format
atoms
##cular
damages
peripheral
receiver
apprehension
showcase
conversion
honoured
troll
additive
propulsion
neo
sexuality
##ind
##icative
serum
##mini
##raine
militant
invention
emerging
emerges
##brate
environmentally
paradigm
##lized
rotating
##ulation
##iba
##urable
##aina
##aine
107
##mable
scrapped
##movable
consent
stigma
georges
incorporating
thinkers
##ignant
##gut
quantitative
##pressive
##hal
seminal
aden
wider
aura
portuguese
grooves
bearded
ore
soc
##ence
##elle
havana
choreographed
honour
##borne
algae
farms
upstate
silvery
forrest
nr
imitation
elusive
##sum
##ption
constructive
reveals
superiority
furry
##lins
fireplace
##ori
substrate
##mide
paralysis
aquatic
ethical
treatments
thai
origins
descended
condensed
sen
##sibility
apparatus
purposes
haitian
enable
##hic
chemotherapy
##sch
##rine
##llar
australian
anticipation
endangered
gleam
exploding
flap
namely
academic
princeton
apes
mastery
faculty
valued
suggests
porcelain
sweetness
39
##atin
##ification
metaphysical
objects
schizophrenia
fiber
existing
##yar
slang
governed
##pus
amino
variety
innovations
thyroid
##tish
strips
eventual
##gno
##erative
bracket
manufacturing
##lent
repository
obsidian
minerals
limestone
plank
stinging
proto
dominating
uncanny
likeness
##mus
peru
reptiles
##aur
pagan
lore
authors
consonants
##bet
##pel
hamburger
metallic
alloy
analogous
uv
petit
##osta
papyrus
abstract
polymers
##edo
syntax
searches
congenital
hydrogen
characterized
vascular
lure
arid
occupational
hazard
sensual
##bian
##estinal
##imeters
creed
dual
##lage
resin
organism
projecting
thrive
##wave
##eses
proteins
enzymes
conducts
scales
removes
printed
##roid
footprints
##wang
puzzled
##ability
mimic
##atable
##hesis
##esh
##tery
##urbed
oneself
inflammatory
influenza
prevalent
floral
bliss
fable
snack
selective
##oton
inhibitors
intra
##vas
##hmi
penguins
employed
entity
supernatural
blocking
##rar
##mers
inhibition
categorized
##ciency
##pre
forearm
sicilian
burr
##emon
articulated
amy
investigative
nordic
##ution
paranormal
##esis
energetic
sublime
##fus
projection
protects
##som
dal
competing
adapting
reproduction
whereby
administer
##ond
##ural
deity
examining
staged
variation
occurrence
##bina
loans
aluminium
vegetable
winged
resistant
##vati
cloudy
albeit
restriction
references
expectation
requiring
conditioning
##sw
vale
harden
inhuman
##ington
finer
robust
##plex
antibodies
corresponding
ether
##eal
configured
absorption
cobalt
centralized
marvel
##lous
effectiveness
maison
##gol
coupled
outburst
ponytail
doubted
mississippi
olds
syllable
##ater
beaver
##odon
mara
cubic
cocoa
##lch
acidic
##idium
profoundly
subsidy
68
balkans
##pal
atlanta
tractor
lucrative
##fall
comparable
required
001
##sant
pv
##fc
edward
ingram
windshield
dow
sacks
mickey
[UNK]
sanchez
ira
hayes
specialist
tyrol
hangar
rand
##camp
barracks
boil
relies
##loaded
wan
scheme
##dav
biker
##bury
550
trunks
##quent
theology
electron
##raphy
blog
selections
##firmed
##pies
mushrooms
basha
##tow
##hom
intentional
stellar
suburbs
loads
hearted
socialists
##itor
clover
##boro
petroleum
##min
agencies
everett
rectangular
intersecting
incidents
##ental
mutations
gary
##venting
unlikely
capped
transcription
accusations
remarkably
##cise
grotesque
islamic
recommended
clit
longitudinal
axis
##ions
motors
breaths
harmonic
casting
topology
imprisoned
drought
disasters
subsequent
ideals
commitments
ensured
occupy
##sser
complications
##cting
squares
activities
cello
wheeler
systematic
simulations
rex
##iform
conservation
roster
frequent
##esa
brad
scouts
secondary
hopper
oppressive
bunk
pinnacle
warp
royce
##uen
kinetic
contempt
ems
##ckman
radial
##using
erin
tierney
henri
accessory
cooler
matthews
measurement
modeling
almighty
transferring
firmly
lining
##woman
lister
##eers
trio
bravo
brands
vip
kemp
##relli
eco
cohen
monitors
vibrations
327
investigates
summers
##pid
striking
parallels
lobbying
wonderland
treaties
typically
##tain
##mite
irs
domination
unification
versa
##tility
unity
hp
##fted
chimneys
fray
av
hazel
mustard
##gel
pepsi
cryptic
simon
cookie
mouths
doi
##nson
nigeria
usa
##aking
bikes
ukrainian
rescuing
##rks
shifters
departments
ness
robin
lured
systematically
flock
ee
chico
consultants
buffer
pol
##itic
##udes
ensemble
analysts
intern
##igan
clicks
youths
ranging
##sco
ruiz
##zen
parish
insurgents
##rist
craftsmen
staten
##erly
travelers
dungeon
egyptians
overthrow
corrupt
wilson
weary
choir
talented
dolphins
stormed
jessie
##loading
rebels
skipped
excluded
##bread
botanical
gardens
fearing
handball
comedians
catalogue
peasants
shirley
##lean
brat
##logists
propaganda
coven
pak
patrolling
palestinian
immature
presidents
captains
cousins
##lum
comets
##sg
##tled
employees
##till
##wei
pods
attaining
ascension
italians
recess
deputies
##lio
##polis
##ania
walkers
tenants
pistols
wielding
saxons
conveyed
collectors
runner
specialists
##cca
practitioners
battled
businessmen
##iac
flared
viceroy
interfered
prosecutors
professors
##ials
insight
horde
cartel
polo
##crats
occult
minors
##moral
##tious
jockey
superficial
chaplain
##life
barbarian
graceful
qualities
swimmers
princes
##atics
nathaniel
snooker
##neck
##olic
swans
madman
socio
dt
gown
pratt
##boot
strokes
##vocation
kentucky
muzzle
vega
##awan
romanian
journalist
blogger
colonies
##kko
gender
##sam
alec
regiments
##hes
clones
##uche
meath
experienced
hardship
provincial
designers
collaborate
das
zombies
spelling
barbed
specimens
##anda
crypt
##lift
greedy
##athic
mutants
muscled
coaching
##runner
bart
wendy
barbarians
goth
##uder
resembling
bulldogs
momentarily
geese
##iculate
afrikaans
songwriters
zoe
snuck
flashlight
schooling
widows
muscular
blazers
oblivion
beamed
manuel
explanations
repetitive
whipping
rees
destroys
instability
vortex
aroma
choked
##iny
attracting
salty
##urs
ralph
raced
somber
stench
hazardous
awakened
antarctic
##flow
searing
bologna
pulpit
delight
crotch
groin
indifference
humour
dedication
responsive
unanimously
candidacy
commencement
conform
consensus
offences
##ota
delivers
seldom
##day
inclined
watford
cemeteries
recipients
randomly
mortals
whites
##meral
##ancy
petition
observer
##cards
journeys
undergo
##train
##tz
lesser
lively
profitable
dodge
ignores
compressor
combinations
hume
centrally
peer
reviewed
berth
stature
simpsons
cleveland
##chase
cyril
packaged
surveys
syria
commandos
tenth
jon
cabins
athletes
readings
elevation
stockholm
wrists
##tered
beg
beatles
manifest
fetal
underside
##sca
##thed
norwich
fists
##umatic
moderate
illnesses
customary
broadly
ethanol
##yst
##bang
engineered
dislike
##iance
lawsuits
interaction
##alle
##uman
elvis
##erson
cynthia
rushes
backside
hiring
novels
insistent
megan
##vating
requests
preacher
trolls
geographic
laced
jewellery
typed
solos
prohibiting
iv
instructor
literary
afternoons
currently
recognise
streams
contracted
fritz
characteristic
##mond
scattered
pebbles
td
imported
##fast
reproductive
transmitted
robotics
psychiatry
seats
includes
emi
##grant
nodes
shortest
makeshift
encore
carp
dictated
##rked
##wo
reformer
gradient
pigeon
##ually
concord
craven
outright
hides
reciprocal
nominees
generate
husbands
phases
interpret
accurately
##oco
moors
empirical
##aga
indoor
benz
reviewing
conferences
jokes
critic
##loid
equilibrium
abruptly
jaguar
scanning
reactions
ideally
##uses
complaints
medals
##otic
plaintiffs
restrained
robes
##pine
##ario
accessories
##cis
##tness
##minated
scratches
articles
satire
rc
interpreted
projections
dubai
retrieval
horsepower
coordination
kelly
moisture
staffed
##ski
pastor
chores
demolition
ceramics
sans
topic
protagonist
##liner
indicators
##rino
##wife
conventions
biographer
republicans
murphy
shea
applicants
submitted
baird
nouns
nominal
chicks
##cta
responding
explosions
dispatched
procedures
websites
foraging
##ssen
scans
provoked
##patient
relativity
popularly
##irs
saul
restrain
severity
elevations
frequencies
backgrounds
upward
locking
sentencing
guidelines
autism
##aria
enlightenment
1778
16th
galileo
symmetry
classical
scrolls
europa
reasonably
grading
averages
immersion
##sie
marco
spies
eyebrows
mv
soothe
carrie
weekdays
fm
##cous
apt
##itors
cesare
portraits
aide
commune
lever
solicitor
apologies
##mming
##bbies
##mous
jung
##ety
##rai
warship
maroon
portsmouth
galveston
olympic
chesapeake
1800s
liberia
voyager
senegal
aground
##usly
hauled
ashore
##ounded
kawasaki
suez
merchant
##nian
##lge
##apa
##buch
norwegian
steamer
sunken
gables
spiders
upstream
marseille
610
honolulu
hms
##fly
chemicals
sleek
havre
ludwig
clad
airship
wen
##tream
infused
##personal
##tadt
irrigation
kris
paddle
interstate
filipino
samoa
##nery
sweatshirt
stricken
peas
coca
groceries
amidst
##monium
candles
frown
revived
butch
##oria
##cade
##view
battered
qi
##01
kwan
hence
##chers
##dock
challenger
puck
lids
tackle
association
whaling
fulfilling
ea
aloud
##aurus
karl
marx
hysterical
judy
paula
shocks
anne
tun
failures
starvation
mythology
outspoken
##ney
contributor
adverse
downfall
leftist
cbs
##nse
arena
##ith
##anza
cultivation
tucking
kickoff
duet
oblivious
comrades
plateau
thompson
hauling
michel
construct
shortage
disney
kyoto
vaudeville
ricky
cakes
participate
enlisted
abbott
boulevard
mage
##tite
peking
conducted
provisions
##bey
respectively
tulane
az
244
agricultural
galleries
fencing
tours
consultant
laguna
louvre
starr
##suke
##dc
shelly
truman
granny
accompanying
uncover
macon
quincy
mae
exams
nintendo
##tick
yankees
flyers
cesar
peggy
helen
##vier
##hort
maryland
attended
forts
lectures
mercer
montgomery
coleman
eugene
volley
serb
departmental
##udi
accord
##horn
##egorical
##tton
doubtful
jude
cobb
pubs
carson
zoom
sylvie
friar
##ophone
mika
##zzy
eileen
patrick
##mme
shelby
bertie
listener
acquainted
wagons
##heim
prophet
##inate
collections
##owe
gael
saturn
fairs
kabul
leonard
harrison
counties
warmer
dining
1946
sectional
claude
dj
workshops
##jou
bender
emmy
dwelling
tentacles
capacity
soviets
umm
saints
luc
1963
saddam
ellie
brooke
peabody
rae
rampage
##grad
：
##folding
##overs
mckay
fished
bodied
tapping
swaying
jong
judith
##games
platt
wilhelm
alexis
lavender
provence
talon
dawson
olsen
daisy
##una
##bour
chad
dylan
congregation
##bon
ike
sacrifices
lew
gladys
##ades
finance
##lay
##gly
newcomer
foreigners
airways
##yas
##ntino
theresa
operas
hacked
orphanage
daphne
gavin
almeida
holders
oceanic
macau
combine
tailor
cruelty
allegations
chopped
electrons
##tangled
##itated
##olis
vertigo
bonuses
fiesta
graphics
interviewing
mayer
newbury
comrade
##rle
##sque
pageant
samba
##zzi
ithaca
documentation
carol
excursion
decommissioned
meredith
reed
typhoon
##suit
gospels
rebuilding
montana
intervened
majestic
businessman
splashed
caledonian
sacrificed
streak
cannes
rugged
lodging
degraded
##tley
snapping
##ils
storms
rooftop
##aca
##zzled
falcons
madame
##rie
dispersal
postmaster
iq
damon
monopoly
resonance
windsor
geoffrey
##waite
buzzing
monk
##bbed
armenians
extensions
weasel
pas
toll
armando
shafts
chen
wal
##eran
ally
talbot
chris
##kong
malcolm
marko
##vic
highland
huang
seafood
##keeping
applications
sparked
boxer
ballots
musicals
accordingly
awoke
synth
rama
limitations
hermit
inspiring
wadi
methane
frankenstein
reviews
insider
ely
possesses
cole
stocked
arden
##arded
tyrant
medicinal
suited
##yo
sedimentary
strata
scrubbed
measurements
vince
victoria
##zawa
##ichi
machinery
flattened
rained
wrecked
karate
advocated
sant
patriotic
mafia
juan
priory
romani
##ilde
sectors
parliamentary
maxwell
jennings
effortlessly
publisher
howard
upcoming
##mma
freedoms
141
auguste
gao
purchasing
edgar
accountable
enforced
centered
saturdays
##gui
unfair
boulders
oils
kraft
fluorescent
digits
jonah
injustice
zur
##rda
mumbai
lori
masculine
newsletter
chamberlain
reasoned
rudolph
builder
midtown
defenses
ambassador
liquids
mentally
refined
torque
upheld
fis
##sure
wary
##nick
##dles
consulted
indoors
nikki
helmets
geographically
nik
portfolio
parker
allah
vocals
rags
quicker
shuffle
tory
molten
len
collarbone
reconstruction
extravagant
cf
cassie
supervise
willingness
swinging
oppression
viktor
payton
sediment
##aea
helm
leeds
overhaul
furnace
concentrating
appointed
drastic
invest
shimmering
hometown
upbeat
straps
defines
soothing
scenery
nationalist
titus
patio
graduates
cheered
paige
hyun
maximize
audiences
investigators
tempered
discussed
liu
demonstrate
discussing
skaters
gregory
cadets
arresting
disciplinary
profession
##gree
##while
ist
ruth
##foot
cavalry
zeta
stimulated
alternatives
##rrow
medicines
regulations
tides
apologetic
##inen
barrett
kurt
discouraged
madly
ceasefire
158
yer
pictured
livelihood
mohammed
##enne
sibling
huddled
bonfire
rv
otter
holt
scattering
hokkaido
accelerating
mcconnell
##keeper
burt
bookstore
dupont
entrusted
financing
defect
edinburgh
apex
neon
salle
hoover
looted
installation
colourful
purely
writers
manufacturer
kazakhstan
tuscany
evans
nbc
lansing
verge
shipyard
dolores
canned
numbered
executive
laboratory
unharmed
trenton
##tree
offshore
consulting
telecommunications
psychiatric
winery
specialty
sud
ceo
aeronautical
kuwait
##tore
shakespeare
obsolete
supermarket
germain
morocco
monarch
sequencing
proprietor
##utable
rebecca
##ncy
cited
blockbuster
heterosexual
seductive
logging
consultation
exceeds
strengths
harassment
bengal
##uis
loco
chile
obedience
beetle
marches
##yra
syndicated
colin
reindeer
whispered
partridge
##uca
falcon
seaside
siberian
fukuoka
##elia
starred
willy
caress
retreating
steering
libyan
snowfall
curiously
##rret
erie
banded
mabel
bassett
immersed
garment
##sus
##tling
mitch
refuge
flashes
##coat
violated
daemon
ripe
mammal
rhino
warlord
barked
aerospace
moore
##raf
carlo
elk
##claim
tentative
predicted
saves
penned
recognizes
##glers
##bino
##bler
##cated
stares
analogy
banged
blankets
##aceous
buffalo
canary
landmark
doorstep
polk
clouded
tailed
##ipes
##lls
breadth
##hopper
rebuild
greyhound
kangaroo
horned
cuckoo
weighed
silky
arab
glands
##evic
ventured
ledge
newt
##rrier
litres
##ood
dracula
lang
##dam
archer
cautiously
trainee
beasts
lena
cylinder
turbo
chargers
printer
declares
muster
57
78
##9
40th
diesel
mercedes
251
sorting
##oms
##inator
avid
emeritus
tablet
escorts
contestant
submarines
comparison
outpost
violently
##anu
##vron
encoded
staggering
baseman
diagnostic
##nine
rover
toronto
reporting
vc
booth
assemble
secretive
206
luther
becker
##kt
lowering
lifeboat
jerseys
kelley
209
southbound
wrestler
##ulent
##kim
brightest
reducing
graduating
2011
dipping
ezra
stil
simultaneously
extinction
roam
successes
infinity
caucasian
44
armory
##fighter
ambiguous
ethnicity
##tner
steward
willis
mills
cambridge
extras
representatives
nanny
performer
##oto
##mania
relate
bulgarian
slots
deputy
attendant
bonn
cb
kennedy
pamphlets
instrumental
yugoslav
vietnamese
##thor
flees
identifiable
evangelist
southland
ranking
kgb
font
historian
gabrielle
gifford
##rrick
##rrell
oswald
willie
horton
antonia
yoon
shawn
##tres
##logist
suzuki
migrant
planner
##tary
seekers
##pathic
declaring
slashed
initials
demonstrating
correspondent
hezbollah
scaled
unofficial
extensively
superstar
bristol
shia
abdul
##had
##hman
##vat
palma
fernandez
##teacher
witnessed
psychologist
##ogist
alleged
sr
##ffed
hispanic
licensed
czech
bloc
corp
##athi
mata
##atal
recruits
injuring
forestry
##rne
legion
##naire
rican
gunnery
spokesperson
investigator
dame
schultz
dynasty
biologist
griffith
stalked
offender
explorer
spokesman
suv
anarchist
##kr
rosewood
nascar
podcast
interpretation
##saka
zambia
stunned
kingdoms
islanders
playboy
englishman
finnish
extent
programmer
##plicity
exterior
promoter
##ages
educator
gilbert
##mber
ascent
teller
technician
mina
##gia
sophia
dubbed
clutch
judgement
longtime
congestion
suburb
##kka
##dium
##sten
saxophone
dew
##nco
liaison
oklahoma
guessed
harlan
mb
volumes
bedside
126
recycling
56
inclusive
executions
weights
cognitive
5000
stepfather
raoul
##oses
##tino
##iction
kc
rested
valerie
fluttering
candidates
oxford
cremated
mentions
liga
kirk
##taff
angelica
antiquities
boxing
haifa
ahmad
rematch
##tman
hopped
bureaucracy
etat
orlando
propped
nikita
##chev
allen
exposing
expenses
gymnastics
consoles
excellence
cortes
snarl
permit
hounds
escaping
spencer
lightweight
sprayed
ignited
148
semantics
tamil
hq
seoul
##icio
singh
bronx
het
regiment
marched
##8th
illuminated
simone
tangled
radiated
swirling
aj
jose
internationally
widening
adjective
islam
rumble
beforehand
effectively
adventures
someday
moroccan
licensing
##cans
picket
concerning
graded
watery
welfare
defining
indonesian
genocide
##quel
welch
organ
1906
disruption
sizable
juliette
apocalypse
contamination
##lyn
lai
extinguished
attracts
biblical
tucson
jacobs
warming
holder
compelling
warring
factions
reversal
##storm
looming
innings
##umber
assists
alumni
##fighting
unwilling
participants
##vac
culinary
lavish
actively
colleges
rampant
aided
##arth
radically
##ulously
inspection
threatens
##oya
tolerate
rally
delayed
proportion
paving
spearheaded
automobile
unions
##bari
amphibious
##torm
stampede
choi
scooped
##jad
inscribed
stainless
blackberry
branded
node
engraved
massif
##aks
dion
banda
boulder
mounds
##cd
slumped
##chia
billboard
enclave
carolyn
atop
iraqi
hannah
scented
ridden
rapids
pounder
crumbling
exclusion
plaque
commemorating
apollo
shady
ara
##lion
winnie
680
tyre
unreasonable
stew
rendition
jackie
fielder
##ility
##hma
##unda
piled
bubba
tainted
##nish
sis
##lets
theta
cushions
smashing
lair
tractors
huts
speeches
##eres
drums
##sight
unspoken
##pace
##ailing
miniatures
ads
plausible
shirts
##ttes
##die
##ntly
sigh
roar
roaring
chuckle
##aghan
groan
yawned
koreans
strait
##rations
karma
ordinance
patel
leaking
frantic
tracing
sank
saber
playoff
pau
surname
##front
offs
vp
widened
succession
##cratic
editing
fractures
shale
##dgets
decree
descriptions
blasting
alcoholism
myriad
##zone
gases
eds
multitude
contenders
##cent
offenses
teaser
marching
neal
mead
baggage
queue
skating
quantity
##ich
alla
verde
constituency
herbert
asbestos
baskets
sera
##phs
valleys
pensions
##ku
brethren
melting
##chin
mounting
fusiliers
descending
journalists
jets
tatar
competitions
1400
entrepreneur
campbell
altering
##river
bombings
watches
joseph
orchard
lexington
skipping
##iki
examination
considerably
disrupted
69
237
boroughs
steals
##around
##cio
cornered
ultrasound
sudanese
corsica
crimea
##dice
rigged
kilda
##rned
##basket
launches
parades
##nting
##sion
johnson
poland
microwave
ballistic
##ely
sadly
blacksmith
elders
lahore
weaker
##mann
multiplied
colder
dominant
wally
eleanor
museums
##mage
dashed
##chs
website
pains
##uttered
witty
grains
metropolitan
playhouse
##tagram
hugged
gregor
muttered
seo
evidently
##ega
risking
airplanes
hotter
dairy
consists
##ocks
revelation
instructed
203
129
physically
holly
variations
fitzroy
##arts
planting
##quay
adviser
adherence
outdated
prostitution
contradiction
plural
##gami
limbs
##enburg
steer
tau
bids
nets
reddish
header
curl
@
reservoir
curls
vidal
scriptures
bishops
clipped
##inium
rented
encompass
tunes
exchanges
prussian
undergone
upgrades
scraped
commemorative
methodology
armand
##lini
oddly
##sio
ethan
substances
conductors
plastics
##ulator
1940
paired
##lance
beautifully
sanjay
johanna
assumes
continuity
blanche
frowns
miriam
stillness
critique
awaited
radiant
anchored
enriched
##lde
discovering
sentenced
hostilities
spared
##stor
paces
##onis
boundary
readers
crossover
##athy
shaved
cary
diverse
grady
archives
riots
maverick
procedural
adored
##chon
undoubtedly
adhere
capabilities
represented
rihanna
##turn
##rah
lacey
elaborate
signaled
persians
invincible
contractual
##rre
##haw
curriculum
tang
##vation
cosmetics
sorority
pomeranian
andrew
vendors
##mmel
archibald
apartheid
tenure
##ml
fare
##rove
istanbul
nests
##rden
kramer
erich
##gt
yarn
woken
oversee
lauded
lester
townsend
6th
1948
1961
creations
congress
##gie
##ral
handicapped
saudi
scientology
russo
ravens
arabic
chimney
dustin
yunnan
liam
##lco
assumptions
harding
##rium
somethin
claudia
fences
devised
greenhouse
canadians
yamamoto
##yson
philadelphia
interface
##ishly
##borg
inferior
vamps
vomiting
windy
dillon
##ths
adolph
bleak
compartment
##sonic
snatched
difficulties
cabinets
generators
outsiders
##bach
attackers
mobilized
facebook
necessity
solitude
angelina
parallel
##lation
intake
beatrice
nichols
nigerian
bolsheviks
paddy
weiss
sequel
alexandra
sweater
##lessness
squirrels
kite
netflix
##pur
folder
vibration
chapel
receptionist
rochdale
growling
analog
countless
##pia
zipper
##ado
governors
robbins
foliage
thornton
##ford
##nzo
tyson
delegates
tactics
butterflies
gamer
rosa
jul
raymond
deteriorating
##eli
bari
##ella
muller
michelle
cumulative
rico
##chet
enterprise
##makers
##ini
basil
abby
##rol
phyllis
veronica
rivals
fairies
tyler
chord
##ald
ambassadors
cleric
judas
##iot
##num
healer
brows
oz
holocaust
##ux
financed
bk
federally
disgrace
consolidate
feminist
curran
fertile
bourgeois
whimper
epa
sweetly
infant
jerking
##erence
trinity
affinity
##ype
angles
favour
derek
mirrored
communes
revenues
piccolo
##very
inward
translate
scowl
withstand
##rek
interim
gp
shifter
chilean
brightness
cinder
##rien
workings
resorts
adequately
alvin
##note
##rained
seasoned
##vine
##nh
##eim
##ezer
naturalist
liberal
provisional
memoirs
liberation
internship
acclaimed
nec
repression
featured
prominence
practitioner
collecting
vulnerability
orr
sash
controller
navigator
navigation
flotilla
gunner
artistic
mca
##mart
arya
wreath
sioux
suriname
sv
##xy
martyr
gallant
europeans
brit
frequented
archaeologist
gestures
palo
##oza
##eft
twain
##mona
requirement
##ez
##vite
summit
earthly
nov
kala
##nikov
tenor
distinguished
##phus
##nging
stated
gore
portugal
##fb
gems
##chee
futile
interactive
fictitious
##piece
fibers
behavioral
##bbe
##crat
samuel
prediction
trends
skirts
exceptional
##lta
armenian
brood
mansions
protege
reacts
topped
milan
##ently
patricia
explores
photographed
tribes
stronghold
analyst
##zation
##ulu
##pate
deported
misunderstood
##gee
afterlife
dictator
banished
referee
timothy
ordnance
transactions
##ography
##qi
spaniards
casablanca
##max
viewer
loyalist
firms
explaining
implications
##xing
interpreter
peeking
gigs
##hri
aggressively
myers
commissioner
thierry
frederick
salvatore
lebanon
meritorious
##nti
carriers
traverse
mocked
projected
##ores
reassuring
amend
bros
remake
##enia
ut
##dev
##powered
##tell
guides
##sil
##lusion
rhetoric
obtained
honda
commentator
discrimination
leapt
definitions
minnesota
yan
styx
hindus
##tani
linebacker
##liness
linguistics
sardinia
dialects
fluent
##dna
nokia
laureate
naughty
punching
optimism
bane
halo
affordable
directors
respectable
crooked
nobility
aristocracy
1732
revered
believer
handbook
benefactor
##zh
hallways
horns
##edging
oversized
##rong
##grating
dependent
admired
alternate
follower
multinational
zimbabwe
folded
hazards
##mad
crowe
##von
hedge
prairie
183
transmissions
critically
hee
##ulous
1300
##working
justification
dat
enlarged
sitcom
dangling
sumo
filters
filtering
hostess
musician
mascot
malicious
conductor
hua
ascended
societal
utopia
subdivided
tb
bestseller
exploits
persecution
labyrinth
surrounds
ultimatum
sundance
1960s
rf
veterans
lyon
clerks
##ille
enclosed
baseline
juveniles
dona
voter
transparency
##bola
tao
uphold
staunch
##oven
rents
neighboring
neighbour
neighbours
commotion
beheaded
collaborating
usage
##erving
##charged
##comb
writ
staggered
mustang
##urt
gathers
##gio
luxembourg
impromptu
archeological
imperialism
generals
reigns
medalist
shouts
##tangle
precedent
cheerfully
trader
identification
##isse
zion
pancakes
##chai
##thermal
purification
##mith
mls
##rone
##edge
confront
##oki
regularly
gardening
marlene
dietrich
##chemist
glint
##ask
##ole
##force
##quest
rower
excel
squads
seaman
compares
disguise
merged
##ibly
algerian
albanian
argentine
##mac
##fur
##roi
foreigner
parachute
limiting
##marks
refugee
##iom
mercenary
##esses
engraving
inscription
sculptor
meteorological
##hli
##zel
manchu
##nder
##nous
unconventional
marriott
fraternity
july
##hat
##ological
intriguing
firearms
travers
##nity
penetration
avery
appointing
tuned
##asian
spurred
afro
curt
bows
wellesley
pianist
routed
advisor
##mined
paramilitary
##vid
baptized
##udence
dodd
windmill
mesa
hughes
saturated
apostles
##uer
unemployed
marxist
nelly
malaysian
participated
##asa
horseshoe
##lord
faulty
##minating
immortals
##mx
advocate
bowler
nirvana
advocacy
vacated
skier
sniffing
affiliated
fanny
##uss
proficiency
prelate
developers
collegiate
chart
##reus
##sville
adjacent
shrine
pinning
seeks
##tum
##hawk
classmates
mormon
##je
raphael
distributor
kenji
warren
stormy
quiver
posing
inactive
compressed
##bad
levy
remarked
sox
adaptation
1911
1912
1971
1977
1973
1979
1993
1975
1974
chevy
mba
1970
1937
1933
1939
##usa
1935
sai
1936
1991
1997
7th
1992
##cht
1996
feb
1921
undertook
1927
1923
1924
1957
1953
1955
1952
1956
1981
1987
1989
1982
canton
1988
1980s
1984
1980
##yuan
1967
1968
1966
22nd
1964
1960
1970s
1947
670
25th
resolving
marius
123
caleb
aaa
##hh
cougars
jed
cox
thorne
pointer
##ury
dangerously
speculative
unnamed
inherent
photography
##sop
##tica
fossils
oversight
sheikh
##yat
diocese
expense
##inas
predominantly
sketches
migrants
influenced
legislation
scarcely
seriousness
fascism
##bella
turnout
abraham
perceive
render
gaul
alarmed
flats
householder
abolished
pts
mechanics
surplus
consequently
##fulness
##zow
chests
friendships
speculated
mbe
narrator
ramon
proponent
contemporaries
interfering
tsar
believers
sava
coding
stimulating
yield
adorned
patronage
lacked
loops
oscar
milo
214
rodriguez
vectors
assignments
timber
anthem
southwestern
apps
reluctant
##wt
##tarian
##iques
pseudonym
mia
thesis
turing
defective
invasive
consortium
responses
predictions
##baldi
##aris
topics
stanley
enactment
stump
guiding
ensuring
##rians
recession
christians
swamps
nuns
correlation
walsh
pianos
blogs
announcements
historians
explored
1715
fungi
##tism
frescoes
adaptations
mantra
gong
medley
midi
pc
##user
observations
substantive
discoveries
stevie
outlying
indefinite
softer
##rio
decline
malls
##psis
demographic
imagery
jp
elliptical
equatorial
editorial
demonstrations
icons
courts
##diment
basics
illustrate
troopers
mesh
conglomerate
producers
chefs
landowners
universities
institutions
##vr
migrated
##grants
supplier
gabriel
##lma
clips
privately
actresses
goddess
commonplace
militants
disposal
dominican
notions
venezuelan
pulp
criticized
instances
grouping
orphaned
augustus
carlton
##riding
##ogical
##asia
angus
mcc
##ull
macro
ceremonies
constitutional
clauses
saigon
##ois
households
insights
##isms
annexed
##graph
politically
dazzling
##nac
onstage
marital
##rna
giants
acquisition
palestinians
seychelles
##dier
##dt
edible
ada
pasadena
##ont
zulu
sculptures
fourier
##worth
demolished
masonic
stained
conquered
cycles
cds
performers
##sms
calculus
societies
psychologists
laboratories
hastily
jingle
wilder
loosely
australians
breakthrough
monuments
keepers
definitive
slides
overlooked
memorabilia
barney
oakley
investments
plantations
assertion
supervision
volatile
segregated
modifications
pioneers
furnished
corrections
nouveau
textiles
buena
consequence
urges
entries
seventies
lanterns
moody
distinctly
nebula
illegitimate
##acies
enthusiasts
##ount
fertility
ursula
titled
vlad
risked
jeremiah
assimilation
breeders
##aan
##aldi
cod
llc
unpaid
cowboys
mechanisms
osaka
frequently
##inated
##lating
cheerful
composers
titles
straightforward
courtship
ascending
mozart
##rger
trainers
hoc
militias
ejected
measuring
droplets
##dot
headlights
garments
stucco
genealogy
pleaded
##gano
greens
var
fisheries
butte
simi
clergy
contribution
##ended
viruses
notably
raided
enterprises
indie
neatly
##bular
plaques
rowe
esq
evangelical
##combe
chassis
provinces
realism
intellectuals
##hani
tesla
hardcore
paste
##anus
debated
condor
##growth
sabre
muslims
airmen
##tze
organizers
##orth
crystalline
registering
somali
nair
shareholder
arsenic
cellular
degradation
bandages
gaps
cancers
rubbed
obligations
##moor
sanitation
shortstop
midday
##rooms
##gman
##gni
attendance
summon
manages
##fen
packets
membranes
gothic
operatic
privilege
reinforced
maneuver
asteroids
sums
##bered
concession
##ctors
rebuilt
policemen
drawings
edith
strategically
##logical
smeared
closeness
backseat
##llus
##ssion
planetary
eminent
archaeological
titans
gomez
views
apache
turnpike
lizards
carvings
vaccines
retailers
##atory
unincorporated
##iu
hygiene
innate
considerable
lengths
sage
supplements
psi
##mie
deformation
assam
##gong
cores
footed
##uting
dwarves
##25
57th
kia
##vir
compare
commented
##wana
shelves
civilizations
endowment
105
crore
mvp
omega
prestige
grunted
growled
inherited
caste
reopened
leaps
##hoff
predecessors
dodgers
acquiring
costly
inexpensive
futuristic
usc
conical
admissions
##kis
rayon
mundane
exceeding
clifton
dominic
beneficial
mcgregor
commonwealth
slacks
tunic
huskies
draws
dwarfs
tweed
denim
authenticity
determining
##rse
concealed
displaying
xiv
1907
1909
##ume
proclamation
neutrality
4000
threaten
discussions
employment
indexed
##graphic
township
coupe
fisher
martha
stewart
bibliography
mla
launching
##gata
##tur
episcopal
##lining
pieter
featuring
clinics
supplemental
previously
theaters
##oun
educational
##ffen
journalism
lobbied
mahal
##tai
fitness
##oku
gogh
botany
strewn
rufus
##kla
frontiers
55
##zyn
evaluate
taboo
devlin
leasing
lease
creamy
rewards
alicia
devon
##rice
overture
allowance
piper
transcript
resignation
filtered
##kson
##cke
syndicate
##kki
baptised
##yler
mackenzie
foyer
praises
secretariat
nietzsche
##eis
afterwards
juno
elliot
securing
caldwell
disability
natasha
##dar
presently
raids
##isk
##mah
warsaw
##tty
##rries
schedules
sophie
stephen
hess
##yla
dartmouth
mckenzie
surrendered
sprint
cheung
jax
mimi
##bib
cedric
shane
deacon
quiz
classics
##eber
seth
hague
astro
1903
maturity
##elis
##lib
widowed
edwin
##uy
maharashtra
hoffman
##lita
cornell
haiti
1942
introduction
tombs
slayer
congregational
northampton
muse
lenny
linguist
specializing
defected
##nostic
elections
jd
advocates
idaho
diplomat
intuitive
cairns
famed
filmmaker
astronomer
debut
28th
memoir
reich
ghanaian
postage
##tute
administration
wished
hilt
nevertheless
beth
eccentric
##hwa
chandra
demetrius
##hon
bradley
##din
##lva
lockheed
ventura
##rde
wat
alfred
independently
este
gustav
pearson
glenn
tracy
##ahl
lei
dorchester
##hil
philosophers
disqualified
ng
##oman
fiona
templar
brazil
##igo
persona
nocturnal
babylonian
chronicle
violinist
prodigy
lac
gymnast
gloria
organizer
leonid
##rgen
##eiro
##inn
backdrop
objected
##dant
punt
durable
darwin
underwent
venetian
warlock
sighs
requiem
choreographer
natives
##hora
##cic
tinted
shielded
##rot
leon
##np
emissions
vane
cyrus
constantine
bethlehem
mph
excelled
competitor
##yang
fairchild
lebanese
truths
##hall
proclaimed
alumnus
consideration
arias
watkins
pennsylvania
##yon
hana
##moto
regulatory
##liest
supporter
golfer
bohemian
poets
gravely
##tters
##kal
coaches
yeshiva
carmen
reaper
styling
creator
protesting
whitehall
rr
testified
cheryl
##rts
paradox
##iani
priestess
rhodes
rhodesia
consul
ghostly
structural
examines
laos
joked
lighted
notable
##bio
lennon
leone
##lich
##lce
##vill
xvi
banking
philology
conan
laszlo
visionary
dramas
respecting
rudy
climbs
##ouring
##erated
lund
carthage
##aly
##stock
agatha
##oric
lehman
dynamics
polymer
##otide
spans
sedan
simulation
aboriginal
connector
armistice
##wat
##hyl
reinforce
1875
1894
17th
1858
kilometre
kilometer
##lick
hectare
rainforest
lbs
1663
wildly
##bm
133
138
153
197
198
##nds
217
218
235
tally
258
268
287
201
333
explorers
313
520
540
acquisitions
580
83
09
86
87
96
370
totaled
356
categories
630
135
114
neill
gracie
181
jagger
256
amendments
ratified
196
279
345
##90
650
67
##15
136
##ropriation
164
zen
##60
presumed
##3
199
##lvis
301
302
317
319
stefan
paths
##bai
06
garcia
lev
voyages
entrances
##cars
marketplace
manned
compulsory
6000
##uration
170
scoring
sobbing
##cious
tyne
trades
decomposition
##tically
roma
##erton
dreamer
cantata
##kus
##aves
divides
conflicts
dissatisfied
##rite
presses
felicity
##jon
##nas
villas
spines
bilingual
hymns
plead
xbox
analyzing
spaced
activation
##truct
hilda
sharif
nearing
och
##80
visibility
zu
advancement
nigel
swelled
1791
1962
qin
declines
madden
celebrations
pere
##grin
##thest
tome
marcel
susceptible
##vies
ernest
worshipped
ranged
##llan
##encies
##erine
fortunately
##vich
##dad
untouched
nashville
spices
lineage
comply
buckled
herr
comics
delaware
woody
primetime
mcbride
avalanche
reclaimed
sara
deteriorated
regrets
pleasantly
nina
pertaining
mets
junctions
ecosystems
##eda
deployment
adrian
inhabit
abundant
subtly
mound
31st
##gration
oboe
flute
familiarity
erik
#
disclosure
edged
fronts
vita
##ances
essex
hillary
thanked
invites
##hee
clicking
##connected
##ifiers
footballer
mikey
castles
justine
proceeded
##ailed
##ngo
onwards
vicky
jared
mckenna
dewey
lindsey
betsy
gibbs
enrique
##ilis
sync
iceland
ohio
fragmented
carpets
columns
##iable
gemini
aspiring
francesca
ripping
periphery
evolve
overseen
collapsing
bianca
buckley
boone
##gny
upgraded
davidson
marjorie
austrian
##oof
flushing
ultraviolet
organised
ark
airing
positioning
tightly
##jali
ellison
toni
envisioned
reformed
hendricks
coldly
##chang
lafayette
##erie
(
)
##aa
publication
notification
starboard
##hiro
fuji
siemens
nord
porte
##marine
abbot
##sford
##bert
km
amtrak
meadows
incorporated
bb
catering
##lake
##islaus
##oga
cherokee
vista
claremont
cues
##cini
attractions
fellowship
hermitage
botanic
swami
fairfield
##gley
##ska
woodland
luis
centro
##24
indianapolis
cavern
##heater
##86
speedway
marlborough
##lellan
refinery
motorola
ontario
padre
##nard
rancho
bernardo
mateo
barbara
sears
raceway
##bright
stockton
##buro
##jas
westfield
macy
jc
cale
biking
preserves
trails
nh
paso
boating
##30
yokohama
yoko
##suka
##aru
1920
exhibitions
stuttgart
transmitters
behaved
2500
115
1807
aurora
www
##shu
##hesive
1950s
fleets
|
nobles
gb
usd
cite
sciences
nsw
expo
lawson
denis
cycling
ottawa
martinez
redding
anaheim
anderson
##iente
arcadia
asahi
##laya
schwartz
pioneer
birmingham
bismarck
##zos
bridgeport
novi
brook
pueblo
##abas
pitt
carmel
basilica
zoological
chandler
mlb
1810
colchester
##oit
denny
diablo
districts
dresden
edna
tori
stagecoach
##xon
faulkner
fowler
1929
##nami
##haven
pines
##rwood
##ell
horace
humboldt
huntington
ibm
1782
parkway
##nai
irvine
johnston
##chner
koch
rating
73
149
coliseum
lowe
loyola
lyman
malibu
mazda
microsoft
##grounds
mira
monterey
104
chang
regeneration
founded
1965
nixon
richardson
railroads
sf
sacramento
samsung
antonio
##vd
405
cruz
wharf
##ady
##sdale
selma
sheridan
alto
##®
##edes
##works
tod
tufts
nba
wnba
uss
illinois
upland
pavilion
joaquin
weaver
299
williamsburg
courses
112
##bay
grover
carolina
kaiser
lancaster
guadalupe
scenic
formations
cullen
glendale
nhl
nfl
maritime
##market
creole
alta
malmo
1770
bathurst
demi
##lho
halifax
##werk
augusta
chattanooga
dickinson
dover
hobbs
nm
jamestown
lambert
louisville
prescott
tex
stirling
reinforcement
centers
##oia
salute
##12
dl
##45
2013
sb
heartland
renovation
<
##14
>
lecturer
lordship
+
##tm
415
cumberland
##43
411
aria
unicode
avon
wilmington
##27
fabricated
##34
305
103
bingham
boise
salem
spacious
##37
raleigh
premises
##sons
vancouver
v6
234
##cross
221
bernardino
##gb
##mg
##wy
swayed
bruno
##mans
atkinson
bedford
calvert
northeastern
andreas
″
revised
2014
½
bailey
vineyards
burlington
camden
##dos
baja
corrugated
##lard
observatory
##arium
##kley
##tek
automotive
##kon
monmouth
rutherford
##xa
catalina
arlington
westminster
edwards
2010
montrose
akron
##sworth
midland
##56
##heart
111
nw
##57
113
##40
walton
##51
grants
118
ashe
##31
refurbished
13th
mtv
franchises
racetrack
##gc
cameron
##torium
pga
152
##burgh
kern
rey
##eson
mcintosh
##tama
##tucket
programme
solely
hosted
##ison
##ogy
dashboard
roe
richie
##text
recalls
manufactured
contests
##sume
pierre
traded
erection
##jan
forbes
romero
##ggs
guerra
##gingly
tyres
waterways
doris
hitchcock
nt
##ioned
fx
ponder
molina
rouge
ptolemy
##lence
regent
easing
humiliated
kang
brody
##shan
transitions
##rka
eddy
arranging
##base
trailers
phillip
susie
##hae
bert
douglas
quote
matilda
sofie
cristina
mats
focuses
roxy
peugeot
dex
vested
##champ
novgorod
##aster
reminiscent
dudley
##version
rounding
showtime
sarcasm
keith
##eki
##ados
##oche
coached
proposing
##imate
restraining
##ain
stevens
amnesty
currie
lashed
billie
donna
lillian
corresponds
bentley
corvette
pupil
bungalow
nikola
##ward
lear
##jet
subdued
organizational
disadvantage
scholarships
##routed
chet
curator
##koto
derrick
flashback
bombay
illumination
smiled
johannes
anita
upbringing
halftime
headmaster
cavalier
##arns
augustine
carlisle
conner
perkins
dodged
jamie
estimate
inadequate
revisions
audi
appoint
kane
asher
voodoo
theorem
edit
stills
ensuing
kingsley
lcd
143
drafting
drills
enlist
goodnight
chapters
##dit
##iter
420
relating
##neo
repay
##53
charting
cinderella
turquoise
teresa
inexperienced
bordering
implying
differentiate
##dget
##md
fronted
reunite
persuade
trustees
##kata
##lai
browser
yao
##gua
flavour
demonstrated
##nr
thicker
transitional
javier
spelled
distances
desktop
cadillac
##wal
##gative
rocker
broadcaster
evaluation
columnist
disliked
stadiums
hernandez
referring
doctoral
##uma
careers
unionist
stair
seminar
yelled
opted
noun
ck
isla
##lifting
sullivan
##finder
advisory
screamed
casey
recited
nancy
eased
peyton
##zhi
##nsky
stint
madras
milford
##zio
beyonce
gaga
##dur
##omo
mccoy
georgina
taipei
##ology
specifications
acknowledged
##rini
##rank
perrin
skinner
existent
investor
paramount
argentina
310
ata
unavailable
yanking
scripts
pamela
contemplated
##duced
##naud
##ggio
gunnar
sven
##iya
posting
zeke
pollard
hepatitis
nottingham
jing
rumours
chained
emails
hornets
holden
##pf
inhibit
intently
jill
##veda
chao
timeless
##bn
giles
248
approx
bp
importantly
32nd
##erin
sonora
batavia
beckett
marcos
roberts
boutique
eastwood
##kei
exeter
exposition
##raz
fontana
heath
irving
owens
keystone
##stad
destinations
##graphs
quinn
##uz
##wine
##tour
910
213
lakers
sudbury
syracuse
racks
controllers
solomon
newcastle
clayton
pagoda
theological
##lett
277
176
lima
amar
leningrad
justin
lorenzo
rafael
##tma
jr
vincent
##trix
techno
afi
##cion
ware
milling
draped
belts
autonomous
mario
capturing
foo
yun
annoyance
thighs
prototypes
levin
expressions
organizing
##imating
hosting
29th
intrigued
strung
reigning
novak
latvian
vanderbilt
activism
plump
reuben
hemingway
batted
vigor
nk
sponsoring
charismatic
vamp
nakamura
functions
nemesis
teammate
libretto
attained
salzburg
suzanne
awaiting
eliminating
bn
disconnected
cruises
bulgaria
designing
obstacles
sly
opposes
fleming
lithium
tna
penal
simplified
malik
peeling
parted
##lun
dickens
hardy
infancy
##tura
reconstructed
soloist
##tage
constituents
citations
caribbean
wasps
abbey
madhya
##swell
##kie
memorandum
taped
serviced
##gill
towed
trimmed
rogers
##court
communal
sesame
##boards
gareth
##uth
##ivating
boyle
sockets
##mates
louie
cs
displacement
devotion
freddie
monty
cp
altitudes
therapeutic
##aire
songwriter
##dled
pali
emblem
catholicism
mollusk
##hui
illusions
piracy
indirect
looting
offended
demise
bridget
bruins
okinawa
resented
pakistan
##ttering
##biology
pont
improvised
scarlet
##vez
##nik
suzy
goodwin
appeals
dh
typing
christie
dialed
b1
##mour
crafted
##well
symphonic
bonnet
##broken
louise
vinnie
lunar
decatur
olaf
easton
albums
##ropolis
weeds
malvern
palermo
calculating
markedly
marking
convection
kendall
melancholy
##mbre
thirties
twenties
##rrigan
possessive
withdrawn
cain
abel
##etto
marquis
settings
nee
saunders
##mation
bf
tunisian
alderman
sami
borrowing
ensures
caretaker
collaborator
disciple
##ido
palaces
##llon
ballast
hayden
expressway
belmont
124
##wd
overland
anchorage
wildcats
410
functionality
amenities
randolph
analogue
eureka
328
intro
buenos
aires
##ston
macarthur
##gara
bradford
brewster
polytechnic
##55
commons
##dm
hastings
##wc
rutgers
##loh
refining
dusk
webster
framing
midwest
##uno
albany
dayton
##redo
niagara
felipe
132
casa
##26
##70
rouen
820
137
139
threaded
quarry
49ers
technicians
lowell
calhoun
##rella
##rkin
theatres
busch
lego
##xley
dunes
hyundai
arroyo
##hide
950
rue
kenneth
335
145
##llen
vila
casper
##75
##abe
doubles
850
##dong
##feld
locomotive
hectares
gaulle
wellness
##rdan
##dham
gibbons
parramatta
bryson
carly
dale
fremont
##roy
harrington
hollis
muir
nape
reyes
encompasses
proctor
##onga
ripley
bautista
stevenson
##yna
darby
hbo
champs
cerro
##acio
cw
metz
##ingen
priced
consumption
editors
jeanne
yearly
¼
##sham
norfolk
050
baldwin
monde
brent
##strom
##nell
hayward
[
concordia
corpus
christi
davenport
denton
erwin
##hope
clockwise
##onia
##woods
hahn
hammond
jasper
##vern
linden
lombard
lynn
rollins
mitsubishi
rd
##65
navajo
newmarket
norton
lakeside
##rman
##crest
fernando
xavier
merchants
lp
welding
suppression
##fp
perceptions
spokane
222
151
bryce
229
aztec
tonnes
phosphorus
154
155
157
159
bytes
hermann
arte
##sia
##itas
##ports
ramps
seine
##zia
elton
##coe
americana
rochester
##llah
mendoza
##leigh
##64
kaplan
temps
##eaux
buick
java
kota
jalan
##dhar
161
1610
162
1621
avalon
163
1630
1634
##cine
1649
1655
1664
beaumont
1670
168
169
##10
nightfall
bavarian
elevators
inverse
anchors
bain
marne
bloomington
crete
gonzales
croatia
##pps
citrus
forte
madonna
publicized
referenced
squadrons
ranges
hawkins
##beck
##23
425
##49
colby
albuquerque
tx
odessa
1701
1708
1712
172
##rnier
##dating
spectators
1740
hawthorne
1745
1747
paterson
1751
1767
1775
179
24th
1790
1799
wentworth
marc
pits
martins
automobiles
infamous
xu
xiang
shrinking
membership
perpetrators
allied
launcher
antibody
comeback
antenna
southeastern
wrongly
subsidies
refusal
sevens
paraguay
nostrils
parc
contend
milwaukee
soprano
sussex
patty
rappers
podium
melvin
ached
moan
concessions
adjustments
scarlett
modify
widen
urgently
goldman
sheen
investigated
preschool
stuart
prized
accelerate
50th
mojo
wrestle
##oja
##tya
##dio
antics
##jia
##uan
integration
strive
textile
174
municipality
townships
committees
195
zheng
1949
marginal
recipient
##zaki
rugby
##kawa
summoned
haze
dormitory
duluth
hearings
ensign
festivities
zealand
##uating
budapest
##hara
marley
evicted
alyssa
##boys
##acker
##amy
clenched
newman
multicultural
shiva
guangdong
##ape
##lik
pornography
plaintiff
##acing
shone
thames
##lmer
joyce
momma
supervisors
raked
democrats
athens
hurdle
photographic
waterloo
##ela
diagrams
manufacture
ff
specification
##foil
dickson
antiques
vineyard
##tula
saratoga
##grove
hyde
simulator
fashionable
##dilly
hardness
hymn
peninsula
bolivia
lopez
israelis
firefighters
descriptive
lilly
terminals
sahib
greer
gps
exceptionally
rotate
nash
langley
kendrick
shamrock
hostel
dunlop
blanca
bao
permitting
croatian
##eral
registrar
queensland
##tua
##elin
sms
meg
disabilities
##yed
navigate
royals
affirmed
entrepreneurs
mortally
stems
thanking
banners
restrictions
titan
##oko
##athan
generalized
orson
angular
adjustable
rhode
pressured
##eia
dwellers
themed
##linger
qualifiers
basque
enthusiast
welsh
etienne
isaiah
prospective
##opped
cheerleading
##icing
repertoire
carter
sermon
quasi
connell
ren
##ginal
gracefully
mosaic
##tension
contributing
labeled
rankings
anthropology
dividing
consciously
joo
##bain
portrayed
intimately
diaries
exercising
##eet
evelyn
nolan
##vius
fishes
501
gazette
shrug
vents
blinds
twists
confesses
smirk
railways
prefect
establishing
##avia
##tham
narrowing
barrage
buddhism
eyelids
##ogo
perch
##shida
sheldon
cartoons
dripping
barns
##eke
celia
vicki
consonant
michele
offerings
flashed
mortimer
minimize
##tp
unemployment
undergoing
obesity
derived
resurrection
brownish
professionally
waived
clara
##stones
detailing
racism
implied
ballard
proposals
investing
extremes
participating
##hardt
mona
klein
misleading
criteria
milton
honorary
authentication
heidelberg
cameo
demographics
sensed
338
olympics
propellers
selecting
conclusions
pathology
monsoon
plainly
lilith
salman
nicole
##ager
ancestor
baritone
subordinate
appropriations
contender
networking
preferring
borneo
##kov
gardner
gable
##wheel
gaston
nodding
##ovich
conrad
sirius
keating
willoughby
lao
cicero
insufficient
##hunter
superintendent
##rika
americas
555
translates
template
##emia
emperors
suppressed
composition
cornwall
donegal
##aid
rescues
contractors
##yme
duration
##ovic
aldo
amended
arithmetic
awakening
guitarist
##ducted
utilizes
385
##nesian
1648
1864
1917
1983
1990
acacia
allan
##ennial
andrea
antigua
##erus
erica
eritrea
fitzgerald
felix
##mbe
hector
henrik
ollie
##rdes
lyons
madeleine
mcdowell
taft
##stov
omaha
pablo
torres
philippe
ix
desmond
sergio
vito
xl
##mura
zeus
narrated
credited
labrador
palestine
promo
toyota
volkswagen
emir
correction
joints
curling
##dial
deliberate
cromwell
backlash
amman
##rting
sparsely
sourced
theatrical
purposely
vowel
##tology
kat
mab
##vere
triangular
kappa
libya
##eter
archaeology
achievements
obscured
nineteenth
anime
##ssler
##uate
wilkins
isabella
refusing
270
cascade
humane
hooper
##pkins
myra
##adt
octave
eastbound
incline
flex
regal
facade
implicated
kruger
lars
bodyguards
phelps
monsieur
peterson
clair
##llins
##nberg
byrd
harper
##aja
##kam
maureen
##ield
francesco
stella
##lson
sighing
busiest
##bolt
continually
##titles
presentations
facades
##phic
textbooks
haji
mccarthy
spectral
festivals
##yte
##iser
buzzed
brady
hartford
tatiana
##hua
null
respective
fellowships
##lena
stabilization
##haling
colton
##cen
charcoal
monasteries
arbitration
beige
ferdinand
schubert
injunction
chronological
aziz
refit
demoted
receptors
risen
hugely
cochrane
coupling
##brick
shortened
ibrahim
antioch
stemming
glittering
unwanted
millie
manuscripts
lagos
scheduling
spirituality
benefited
straits
hugh
differ
valves
##baum
logistics
motorway
dissolved
nikolay
##evich
maxim
jailed
truss
exchanging
raul
alexa
loretta
commodore
cora
##toy
##yes
ramos
ae
##hus
christoph
peruvian
exempt
whistling
##wen
lieu
bowman
##dberg
##arney
dennis
guido
recommendations
lectured
validation
poked
adolf
ethel
##rona
prix
##quette
commanding
##evsky
manga
##hari
carver
rulers
cassandra
##yck
marlon
gilles
jozef
missy
sumner
##hc
poole
malone
streamed
mustafa
sweeney
##shaw
##mara
##lein
227
barton
##nstein
carla
henley
lucius
##rwin
ulrich
crawley
##thy
layton
reginald
weighted
predominant
protested
clergyman
philips
similarities
benevolent
rt
damien
debbie
storylines
##kovich
besieged
horrified
curvature
##18
##16
##19
##21
belongings
scholastic
exercised
##47
seasonal
##adan
##building
corridors
pathways
bearer
unnoticed
confederate
tribune
approximate
hushed
comprises
bala
wooded
heroine
redundant
rafe
eldest
grasping
sensory
insides
contracting
viewpoint
sicily
outlook
higgins
orientation
cooperative
eton
eclectic
##chman
##powering
brittle
halle
##jah
niger
bacterial
posthumously
harmed
wolverine
comparing
rays
thereby
doherty
##lland
inclination
##17
boer
brock
brunswick
horticultural
greenwood
##gold
##lham
ramsey
##nais
bipolar
moods
installment
objections
newfoundland
placement
priorities
colours
confinement
gills
lingering
consecrated
encompassed
indicated
affiliation
tensions
holster
clint
##fera
720
moreno
zachary
##unciation
webber
##berman
thumping
continual
modeled
virgil
##hoot
socrates
wah
franco
turmoil
financially
##nza
coronation
watershed
reconciled
##page
##arian
chevrolet
285
##notes
collaboration
thistle
papal
contributors
styled
simplest
advertised
benedict
seminole
##tsk
##mons
comical
friars
culturally
##tched
morals
centenary
ryder
alberta
##otted
##romatic
daniels
eugen
imaginative
conception
petersen
cbc
edmonton
slated
##ductive
artisans
1830
pilgrim
##lene
vivian
registration
johann
##kney
isles
resentment
bequeathed
donald
##rane
1618
273
1852
1899
redeveloped
rockefeller
wales
ensued
ceded
##itch
##ricting
swiped
chesterfield
coined
glowed
##scan
1902
orbital
criticised
reflections
deciduous
##body
sited
densely
unesco
##escu
aston
jointly
discontinued
clutched
1831
nissan
downloaded
rowing
pleading
highlighted
draining
##earing
hari
erected
##shire
257
2012
anticipating
##bara
##hila
notation
kilometres
adele
aidan
brendan
mw
himalayan
gland
##idon
1901
beverley
isabel
fledged
pledged
##ike
##sir
savoy
gradual
krishna
greed
otto
frederic
##hala
1869
##jin
reportedly
hebrew
della
coordinate
immensely
1919
cyprus
nagoya
tunis
warwick
oppose
mandated
neuroscience
output
psalm
##nem
charley
andersen
giggling
finalist
turin
unclear
##sier
prizes
mumbled
largely
1699
leased
percival
clapping
pontiac
cd
bony
spherical
growl
##twined
tidal
indy
sealing
shutting
patterned
loch
scranton
packaging
pcs
limitation
selena
partition
symposium
##ndt
##tify
chrysler
erika
incorrect
##dran
javelin
gwen
burroughs
katharine
##cel
##tina
rohan
regulation
##mut
melodic
##nea
campo
##tip
lydia
mayors
structurally
##100
##olate
georgian
considerations
humanities
##nets
guru
richards
jiang
##ech
opium
ordained
1714
relocated
northwards
orthodoxy
abbas
##ssel
harcourt
1795
1920s
napoleonic
prompted
transcribed
nicknamed
exceeded
comfortably
##ingly
constrained
dynasties
##lassified
remade
nero
replacing
rhythmic
sincerely
luftwaffe
sculpted
##mana
pennant
1784
##wright
slick
ashton
kw
##nar
edited
##rgan
winked
excluding
##aling
situ
surpassed
swapped
normandy
blossoms
stubble
emancipation
hue
fibre
venezuela
hugo
craved
##lbert
occupying
tomas
communicated
penultimate
indies
neptune
revue
rallies
quantities
glaring
tinged
##beau
##kled
##lver
##cens
##ored
unearthed
unsigned
socialism
abyss
cabaret
finland
##dee
noticeable
impetus
azores
abolitionist
wesley
governance
merlin
archie
floyd
hotspur
depict
impacted
securely
inflated
ironically
wavy
##kling
agra
voiced
shouldered
railing
##eau
dwyer
307
teammates
bryan
overcame
##croft
wylie
tully
drumming
##iko
lille
align
wolfe
organisations
narrative
formats
implementation
hc
##ologies
46th
bayou
piazza
smoothed
fluids
paler
aired
nomination
braking
tariffs
##rsk
##plify
procurement
invariably
northumberland
##erted
santana
pulitzer
evenly
minsk
enforce
##ray
pittsburgh
scrutiny
criticisms
barlow
thematic
themes
##zd
anya
nantes
roundabout
helmut
screenings
sichuan
bypassed
celeste
marty
leland
philipp
isabelle
credentials
tacoma
deborah
##roved
kindly
participant
clinch
##llis
bono
hoffmann
sampling
eaton
nadia
##ulla
thom
jenkins
joshua
##stown
wolff
2a
observes
fridays
##lman
missionary
##ices
288
longed
showered
baton
processors
cambodia
partnered
miner
##dez
glucose
cursing
grouped
rearview
lyle
ganga
dalton
exhibiting
occupants
supermarkets
amplified
bangladesh
sharply
murals
##yuki
##isch
##xx
hanna
##fin
connie
##nam
enroll
monastic
undergraduate
##ares
1813
##physics
##ij
cathy
dukes
##scoe
somerset
speedy
35th
realms
enacted
nellie
##ango
rehearsals
softened
aiding
##yah
slalom
noah
vanguard
olivier
theoretically
phylogenetic
delegate
nexus
hinted
##nged
##js
eagerly
academies
##ried
##git
watered
##rion
rattled
psychedelic
distraught
joanne
showcasing
##shing
welterweight
slowing
##iting
conflicting
localized
smallpox
donnie
regulated
questionable
shear
originate
avengers
rustling
##ciation
tipperary
dirk
##astic
strauss
oskar
lateral
drury
cadiz
##ales
bordered
carmine
ronnie
persist
persistence
recognizing
kahn
healy
fundraising
greta
##culus
begs
illustrates
constitutes
timmy
biased
implies
accumulation
aka
##good
##analysis
ml
galloway
##script
##dden
##factory
##rano
tessa
erect
nino
1951
spurs
terrestrial
improper
undertaker
conjecture
globalization
##rae
whichever
perez
subjective
rhapsody
flagship
strode
facto
dalai
lama
##orio
taxpayers
employing
drafted
celtics
originated
brennan
chronicles
electorate
documented
notwithstanding
refers
interceptor
juniors
invasions
evolving
sebastien
streaked
median
1913
indicating
202
paperback
inspectors
fluctuations
premise
brigham
reforms
regents
##lah
migratory
aperture
applies
sellers
elector
mutually
campground
##ulates
meanings
roland
amused
factual
##oris
unlawful
scorer
##ocation
skylar
cyclist
1895
vacancy
##yoshi
sloan
wilton
ridley
relevance
osborne
##otti
margot
flavors
printers
knicks
##joy
poorer
abrupt
melee
prejudice
fins
##hurst
##ific
countess
yuri
wanderers
blackburn
##points
derives
##entation
kelvin
cochin
1978
##ential
bias
consist
marcia
stacy
##tead
polly
canon
richly
putnam
georgie
magdalena
##skin
##ej
ley
keller
philanthropist
foxes
unfit
kumar
275
modes
werner
##tituted
##ivation
clans
219
filippo
napier
murdoch
spielberg
pauline
togo
401
diversified
scala
woodward
google
comparative
bucharest
##dai
vhs
artefacts
palette
##yx
autonomy
deficiency
marin
directing
aft
andrey
invoked
benny
increases
appealed
attendants
##rricular
urging
##escence
md
cornelius
vocabulary
sheila
babu
##mei
jacques
tay
patti
crossings
taiwanese
phonetic
horatio
wong
grassy
mysore
337
770
1805
1809
1811
1814
184
1845
1848
1789
185
1850
1854
1859
1866
1867
187
1873
188
189
1890s
friedman
##29
##lou
##igh
exclude
ns
1880
fenton
andrews
hannibal
lawrence
##qa
distinguish
##forms
syriac
appellate
supremacy
clash
nominate
##eman
plight
partisans
censorship
humanist
chung
sunni
starbucks
modernist
shaggy
emile
precedence
lengthy
necessitated
coventry
soluble
councillors
pulmonary
mantle
constantinople
occurrences
284
troupe
anders
lullaby
caspian
peterborough
##tral
telecom
##bah
##dation
dialogues
octagonal
vassal
##rland
huffed
pretoria
masonry
343
fargo
ventures
1994
luton
##mund
##flies
##quisite
brien
hissed
schemes
reelected
riff
stimuli
dd
feudal
##arte
uta
philharmonic
dunbar
detached
utilize
herzegovina
ponds
roc
sabbath
spectra
gorge
quintet
steamship
##kot
cunningham
restarted
deux
##13
##zai
blitz
1880s
##54
shah
milano
mainz
glided
##ucible
noel
embracing
eta
3a
arenas
##kh
##lka
rodrigo
##enbach
##bron
mannheim
diplomacy
gasp
console
52nd
##emann
interactions
patted
majors
furious
amherst
flicked
a2
##59
wien
garrett
florian
##ition
inspected
rajasthan
dawned
zenith
volvo
bisexual
jogged
##zon
##oshi
1905
1908
1910
1914
1915
1916
193
1930
194
1941
1950
1959
##gical
tung
novella
a1
##a1
utilization
##uw
1a
leipzig
verdi
##¼
##½
rotary
##ower
##ication
amc
bram
berg
bicycles
berwick
abbreviation
ahl
petra
##rca
decker
torino
##44
tramway
vida
ks
##cm
complementary
cyclists
behaviors
espn
mp3
##omic
00pm
palazzo
nationale
musique
musee
nix
##dorf
ashland
atlas
bella
centennial
cosmopolitan
272
toro
##66
##ife
packard
greenville
napoli
romano
airbus
##46
educate
‐
hd
mobility
iphone
ipad
atrium
##rbin
siding
amadeus
installing
imposed
organise
304
lenin
##gall
foundry
fiscal
##oir
fourteenth
jaime
herring
rooney
editions
chewed
4a
##dity
aeronautics
ewing
summary
barrister
schmidt
simpson
poe
##kken
ferris
pornographic
composing
delgado
##deck
timely
croft
slain
hedges
amplifier
alma
##boats
veterinary
initiating
ionic
advised
arterial
scanned
subjected
regretted
conservatives
severn
##aya
valkyrie
abbess
nanjing
##ntine
##gat
unusually
vermont
leicester
bathed
exemplary
facilitate
##nded
barred
commissioned
nyu
magistrates
falsely
##ndon
irritated
exasperated
sprawling
hurdles
loki
achilles
shropshire
modelling
##vio
administrator
##dded
rejoined
internment
##word
signaling
calvin
##kow
##mering
##vn
bowed
envoy
claudio
bmw
forthcoming
##hosis
clinched
##zak
dauphin
##hima
compensated
mcguire
complied
creditors
cultivated
supplementary
entirety
decreased
decreed
magnus
disbanded
programmes
commercials
##imum
sway
wines
##scopic
endeavour
fcc
commuted
latham
luisa
taiwan
kingston
industrialist
roberto
plata
literacy
wavelength
python
annex
##vances
indochina
macbeth
gettysburg
danielle
##wyn
suppliers
amir
dissatisfaction
##gement
scribe
discontent
possessing
renewal
##fixed
byu
belgrade
edict
genevieve
pembroke
jacqueline
fife
leach
authorised
preston
evergreen
combatants
keynes
venues
mace
cornerstone
presenting
certification
materialized
archery
ares
giorgio
captained
minnie
##uding
essays
joao
elsa
##urer
olympian
wept
chairperson
forsyth
fitch
##cuting
temperance
hale
affiliates
##ection
invading
ancestry
##cule
newcomers
##ishment
squeezing
supervising
mongol
jain
tended
jubilee
##rocity
##grapher
conscription
##hrer
##laid
peered
pictorial
petitioned
sonya
wherein
##quitable
rebelled
edo
remarried
bengali
sacked
##kota
capitals
emil
pearce
mischievous
aspirations
##icles
ecclesiastical
shareholders
sired
trinidad
nassau
integrated
uncles
campaigning
magnate
wanda
##gum
downloads
pondered
succumbed
surveyed
spawn
scully
arteries
reinstated
##cken
amounted
mechanically
entertained
prefers
acknowledges
unaffected
uncomfortably
specializes
lsu
forbade
managers
durga
swimmer
morales
padded
emergence
draper
baroness
hideout
praising
##ically
ducked
skeletal
##sher
mildred
fictional
versatile
criticizing
eyeing
bt
prostate
albion
comprehension
reeling
##tively
stylized
keynote
hornet
damian
kicker
paz
trademark
genome
mapping
mccall
jagged
kathryn
enforcing
glances
succeeding
husky
aviv
hilary
ariel
jj
mick
coated
##irus
##thal
hinduism
2008
animator
sinatra
callahan
exploited
rhythms
bends
##200
glossy
rotational
removing
reputed
representation
maintains
avoids
torpedoes
redevelopment
collaborators
endemic
reflects
deities
topical
mcqueen
caucasus
walled
yields
rani
##lated
heidi
narrower
downstream
fontaine
converting
##hita
defeats
##arion
georg
denounced
grimes
opined
signifies
sebastian
rupert
bogota
fauna
ricardo
chromosomes
##oteric
zane
##geny
encourages
christopher
baylor
prowess
hierarchy
monetary
marguerite
shortages
omitted
trembled
depiction
##osity
benoit
invertebrates
##ctuated
eels
vickers
disqualification
490
conquest
##feng
jian
##oft
multiplication
exemption
distortion
toxicity
wakefield
pivotal
boasts
##mian
##tlement
inability
##owski
finn
##hett
protections
harvesting
depicted
frail
wetlands
anthology
gilmore
##ssar
999
enhancing
genres
sri
lanka
translating
##shore
stairway
hampstead
galley
heaviest
hans
##rso
##gm
southernmost
##taro
##pc
honduras
lyric
refrain
nominations
sic
feasible
branding
##ttered
fares
##jana
natal
##nington
##lga
##jn
haute
norte
reared
murmurs
uruguay
duane
ivo
patsy
nhs
ruben
75th
##valent
rudder
baptism
sentiments
##uance
##section
productions
1932
326
##hone
preceding
##sey
##bbon
riga
heiress
relegated
jesuits
validity
electors
##rook
sovereignty
seeming
taxis
inventions
edmund
adultery
##ffs
winslow
borough
##ara
##chel
cassidy
providers
verified
##iology
##slow
guantanamo
nominee
rm
mao
comte
politely
expansive
bahn
##resses
fined
sighed
##inging
giggles
pacing
##lwyn
bolivar
quebec
sainte
331
281
255
parma
##fan
dusseldorf
##hein
##glia
##ruck
brandt
horne
##hof
##hausen
##nburg
##eland
steered
##ards
outstretched
illustrations
lowers
rhone
disturbances
tertiary
joel
johannesburg
fae
meyer
konrad
##auer
chong
olga
rudolf
##lei
##urst
bremen
sidewalks
gaines
nicaragua
remnant
panzer
astrid
hallmark
doin
haynes
physiological
valencia
##fers
rn
becky
undertaken
##bilities
webb
freeman
executing
##lving
xinjiang
##zal
##anal
##tana
individually
##rchy
roche
voluntarily
bowled
scholarly
322
solemnly
yiddish
salim
##tang
controversies
faust
maru
##eded
isaac
carole
lawful
derivatives
constantin
eps
brodie
##dlow
hepburn
marissa
pricing
##bek
levine
jakob
jem
kobe
leah
reacting
##vana
sadie
trey
##mada
floated
banjo
exodus
broadcasts
pointe
54th
middletown
sadler
lurking
unopposed
##ggy
concentrations
sahara
motorized
mayhem
walden
phoebe
disciplines
retaining
incorporate
abandoning
obligatory
cavendish
letterman
como
##dp
271
475
710
##yan
watts
vastly
245
246
306
blackpool
alain
##39
##85
punjab
yugoslavia
##35
##38
521
55th
590
aberdeen
duncan
##ddin
alejandro
allie
patterson
antoine
##eller
##ault
##shima
oslo
balthazar
##lz
bolshevik
brett
shepard
##kowski
camilla
canberra
cecilia
##eng
corbin
coulter
crosby
dario
ashby
diane
##uez
donovan
##plin
whitley
davies
enzo
##wicz
administrations
##rber
foley
francois
##eger
gaelic
germanic
contention
godzilla
##bard
influencing
hartley
aramaic
helene
mclaren
howie
igor
campuses
jillian
joanna
##ello
##lane
##mare
hodges
judah
juliana
298
kayla
khalid
koln
leslie
lexi
luciano
lulu
mandarin
mikhail
monique
##aux
wilkes
muriel
neville
larson
nicolas
elliott
penelope
macintosh
piers
##main
reykjavik
clement
federer
roth
sandra
lucia
schneider
kari
##ardo
sofia
##lette
stratford
tamara
tanaka
courtney
tiffany
tristan
valentin
##bley
vikram
worcestershire
compton
glasgow
yuki
sims
skye
##utz
404
embroidery
arguably
cambodian
crested
dahl
##enes
confines
##titled
motif
maltese
mecca
telenovela
rpg
papua
territorial
remington
740
sanskrit
tract
vedic
accompaniment
vaulted
##uze
compartments
bulging
bilateral
dilapidated
wight
extracts
olympus
264
populous
describes
enthusiastically
amplitude
inorganic
dysfunction
commentary
compilation
tnt
fatty
##llum
vijay
cylindrical
tq
rumbling
defamation
deterioration
##ctric
originating
genus
##utive
directory
dispersed
seeded
landon
peters
fidelity
receptions
##issa
seminars
focal
diaz
##therapy
1100
synthesis
distillery
bazaar
supplying
barre
caitlin
illustration
crowley
##listic
sacrament
undergoes
westchester
toulouse
##tonic
giuseppe
shelters
lauderdale
##kali
restrictive
coarse
##ausen
imam
economist
hamas
theologians
protestant
tilting
willed
sony
withdrawing
preparatory
barker
hines
kowalski
woodrow
37th
layla
twelfth
viaduct
administrators
freestyle
laborers
wealthiest
minorities
timor
deng
portals
beaming
unicef
iss
bulbs
evaluating
overseeing
analytical
gruff
pioneering
homestead
polling
presiding
cricketer
##raphic
adept
insulation
novo
documentaries
reassured
reassigned
interpretations
addressing
valuation
colonists
additions
clause
embankment
rourke
attache
livery
weston
##rogen
pp
bois
rotterdam
galerie
francaise
mccormick
racecourse
notre
palais
nagar
raaf
hickory
healthcare
italia
barnett
circa
epsilon
45th
hanson
melodies
dorian
ernst
wang
##lase
finale
##ivist
—
sergei
dungeons
confederacy
dane
walkway
##grave
schwarz
climates
flux
televised
boca
opaque
defenders
nic
potomac
liberals
tavi
openings
pisa
375
verses
packers
soils
##eased
temperate
symmetrical
lobes
vichy
banco
boosted
differing
760
##nx
callie
durban
phosphate
distinctions
derive
352
youtube
compensate
efficiently
posture
incarcerated
principals
##bala
distinguishing
isis
##ively
##lices
##lak
unused
pantheon
portraying
arcs
peaking
mergers
unpublished
libel
namesake
theodore
mentoring
dynamo
bard
ying
coincide
##ksha
overview
rotor
volta
hungarians
converse
entities
bodily
avenues
##tained
olson
illuminating
internationals
gatherings
hesitated
commits
broader
emery
##erland
interception
chieftain
complexes
restart
reorganization
asturias
compose
delicately
halves
angered
participates
motorcycles
consumers
recounted
authoritarian
tents
mcgraw
nudged
nikolai
##lander
hindi
arrays
jamaican
macleod
domestically
##posed
phillies
##bians
roanoke
inspections
inconsistent
implements
flicking
frowned
domed
alloys
vigorous
adversary
despised
portrays
##hedral
##henko
##ired
##cz
##lands
optical
andrei
##ignon
longevity
heaving
978
nl
colbert
##uram
wince
thence
##nsen
1891
theodor
whitman
##nl
accommodated
wessex
wheeling
shuffling
208
##words
bellevue
bop
cade
##lley
##ein
convoys
approximation
conserve
##sler
vernacular
##aq
productivity
adjoining
deciding
fuselage
colleen
##ieu
enabling
allotted
roderick
leveled
amos
aristotle
##khov
1860
1904
christy
dominique
gottfried
computed
legislative
alf
##hdi
groaning
badminton
encoding
robbie
lunged
weightlifting
##oire
awkwardly
enrico
sequels
##litz
##dha
##sitor
submissions
substitution
confidently
morrison
botanist
33rd
inclusion
battleships
##ashi
##avio
guggenheim
buds
advent
bullock
athenian
rocco
aback
228
libertarian
skimmed
rainfall
policing
braced
emigrated
electrically
alexandre
tugs
dominate
monograph
planners
issuing
mccann
##forth
lal
celine
##dome
caressing
##oration
jimmie
glover
##dick
##duction
duly
##osomal
eyre
logos
##olt
##frid
stylistic
nodded
boxed
##mbs
324
copying
massey
##scia
34th
winthrop
maud
inhabitants
yvonne
##tein
burundi
subsidiaries
commodities
##ffie
evaluated
michaels
enhancement
athena
51st
burma
##wad
artworks
groundwater
##genesis
periodic
toledo
exports
commissioners
numbering
illustrating
documenting
estimates
##meric
mathematicians
forcibly
##hia
establishments
##rik
##lang
mughal
1605
gallagher
stephens
christine
dieter
nutrient
substrates
danes
donnell
waved
##dini
reluctantly
manifold
regan
kneeling
emmanuel
compassionate
liege
faculties
boasted
reilly
harrisburg
leary
corinne
309
marge
oleg
corey
darren
akira
restricting
subscribers
forums
luce
excavation
238
biographical
haryana
##nov
allegro
sg
midfield
offset
216
anwar
bey
cholera
chronology
##gonal
basalt
garfield
maize
renault
professions
##mental
danube
employs
emory
straightening
carbonate
foothills
parody
pendulum
johns
agrarian
gregg
expresses
##dora
##inda
smackdown
storing
hiroshi
promotional
pronunciation
regulates
relates
merging
expressive
partnering
characterization
elmer
conway
eyebrow
##reen
chester
burnett
ozone
cv
brianna
stomped
musa
ingrid
nonlinear
newsweek
bloomfield
robson
realises
##kur
yells
prologue
marvin
bahadur
brilliance
soundtracks
allocation
##ricted
archdiocese
statewide
##atus
##eros
417
230
charted
myrtle
leroy
astonished
refueling
##metry
bbc
picturesque
occupies
deportation
redesigned
flourished
meridian
annabelle
·
##sphere
latvia
alistair
##ining
##rative
choirs
juarez
maldives
sheng
premiered
violins
hammering
hiss
outreach
shelley
arising
sirens
wimbledon
katy
privateer
840
kv
sharma
buffy
pronouns
lina
markham
402
##7th
243
basal
rossi
carlson
addison
##bourne
alessandro
##gren
##sz
##cheon
baptiste
matteo
shapiro
hartman
annette
axel
##rington
bertha
##lana
rowland
kristen
bobo
constructions
louisa
leopold
vargas
cdc
calder
candace
netherlands
##vington
cartwright
sima
##yman
ritchie
maharaja
chevalier
slade
clare
cree
concepcion
dans
davey
dax
rory
debra
263
##ayton
sanders
christensen
daly
cheney
jensen
mcpherson
sylvester
##rford
##xton
duffy
dumont
##dman
beale
ein
elise
parsons
enoch
shaun
emilio
ernesto
evie
cappella
franz
friedrich
galen
garry
navarro
transverse
lea
##brand
sniffed
##rith
gerald
janice
##lav
merits
mangrove
partisan
mathematician
marred
scaling
##iq
##duk
demos
##jee
guadalajara
crusaders
umpire
trough
stokes
convened
topological
pursuant
##erre
stipulated
unofficially
institut
ventral
viva
wastewater
outlines
1776
lutheran
carnegie
314
##cina
tournaments
##jal
##tock
charters
fountains
407
##hana
julio
451
kimberly
laird
lacy
oro
1874
renee
##cliff
flores
intermediate
##ucci
##nitz
##anga
##landa
##nig
presbyterian
1876
fairbanks
merritt
thereof
bhp
manufacturers
hanoi
290
]
μ
bose
##iman
duran
hilltop
##lino
http
arboretum
northward
yd
«
comedies
^
##alla
romania
mcgee
regis
perspectives
assessments
elle
moran
slamming
institutional
loosened
jocelyn
regaining
initiatives
replication
retracted
roadway
assisting
franciscan
##color
duets
##iana
##rada
rivera
##lind
goran
albania
graeme
##erry
gunter
guo
manfred
##witz
hiram
hirsch
mgm
##drick
tarzan
##jean
rios
fitzpatrick
##rard
lennox
##vb
orton
##ogan
mclaughlin
katz
clarissa
##cey
hansen
kathleen
lange
kendra
brewer
kira
##eering
leigh
ponce
##ehan
lim
##belle
lucinda
luz
##lain
luca
mariana
guerrero
buren
ballad
ito
nils
##ground
repeal
kashmir
##hul
bartlett
markus
complement
skirmish
##mounted
kassel
locating
finley
seamen
nyc
##kk
hesse
braun
intermittent
chopin
##elial
##ises
anson
##eras
connolly
yves
harlow
routing
##urities
##roller
tackles
presenter
incompatible
##phobia
sprawled
competence
bray
315
magna
enthusiastic
considers
soared
sociological
middleweight
fordham
##orro
champaign
urbana
huntsville
1897
cafes
janeiro
##eves
oman
dwellings
loire
hasan
ile
simulcast
##sfield
fulton
##sboro
##miento
##minster
estuary
nj
chapman
gladstone
##wich
residences
##nock
doncaster
ipswich
recommends
infants
##kell
upton
2015
2020
205
207
glare
¾
wendell
212
215
ferries
sidney
brant
cisco
##sport
480
capita
panorama
##33
223
mcmillan
##bahn
##22
##bry
nationwide
231
232
233
236
woodlands
nautical
bayer
##aka
##kumar
241
295
247
249
annapolis
mcnamara
caine
dorset
milos
##ako
##nus
hendrix
viscount
##loe
##ghi
##tet
##kor
lok
prentice
ritter
rainer
kamal
##iere
howell
##mack
rhys
bartholomew
##rson
##smith
rosalie
ryu
sabine
jarrett
devin
sgt
sakura
##ndra
siegfried
nationality
stacey
carey
milne
carmichael
greenfield
susanna
susannah
takahashi
agustin
aragon
gage
vicente
joshi
flemish
bernstein
thayer
zhou
60th
##vik
booker
gutierrez
sawyer
##sell
reluctance
surveyor
karel
rovers
afterward
pokemon
##vili
mindanao
lazarus
analyses
mendes
patting
##rissa
castes
munster
authored
tugged
swirled
rockwell
mozambique
piston
##iji
##jima
montagu
jase
reggae
##ctum
julien
sporadic
grit
acknowledging
##rani
combines
instructional
serbia
similarly
screenwriter
statutory
##rosis
v8
overlapping
reliefs
470
perth
##igraphy
##otto
ivanov
##zcz
gdansk
booths
marino
agreements
nara
cadence
visas
inscriptions
graphs
grasslands
biographies
##cius
saskatoon
owls
restrict
hoisted
covent
##jiang
runways
totaling
##neil
inhabited
##oting
listings
##sov
##mise
wwii
##pta
##itative
nonfiction
maestro
##itaire
economically
ported
subsidiary
cyclic
connectivity
##lastic
1720
variant
judo
tightened
greenberg
pew
npr
##tler
classmate
cyclones
flickered
sarajevo
##aday
moans
##ears
##logic
endeavors
esther
medina
vittorio
##mics
eleventh
peaked
clifford
dentistry
##pins
prolific
##vos
regimes
muffled
britannia
berber
tehran
godfrey
##vial
##masters
sarawak
capacities
highlanders
publishes
postwar
jaya
vt
##enham
##rval
elgin
##wley
##chfield
malta
simeon
##br
lds
252
cornice
254
259
ortega
cfl
nuevo
##koff
sanford
wichita
261
267
##eche
m2
276
278
hearst
283
289
adventist
291
292
293
294
##kou
hoarse
##rled
nicola
rochelle
##chrome
lyrical
##mism
##vani
dir
argent
harmonies
buccaneers
proficient
promoters
zee
shelton
##eil
wharton
exiled
shipbuilding
reviewer
##cian
nielsen
garner
##pw
applicant
auditioned
##race
##dication
proportional
auditor
traveller
atkins
reissue
luigi
gothenburg
argyle
musically
mandates
##ikh
##hawks
goethe
##haus
optional
html
2017
porto
montenegro
##sau
1926
##adia
##rlin
eduardo
collectively
##rization
nicholson
dryly
##ivism
##trics
powerhouse
santo
relocation
relocate
elijah
##ques
dwight
moe
albanians
contrasts
archival
horizons
chilling
stroking
surpassing
tapestry
##ajan
aggregate
mined
rus
diffusion
exploitation
pairing
dietary
davy
informing
##ao
entropy
fullback
myspace
cn
williamson
athletics
aesthetics
stresses
maximal
divinity
##aud
interact
puget
oceania
rune
fergus
terre
seahawks
1969
praised
lesley
debuts
annum
astoria
aubrey
slater
##dridge
tribunal
gloucester
##uddin
jurgen
vincenzo
clarkson
vilnius
treatise
##anto
##ieg
##leton
clarke
rousseau
##bf
receptor
nomenclature
formulated
brigadier
kant
darius
loaned
jurist
##partisan
tugging
patents
simultaneous
flanders
emirates
inequality
mckinley
##puted
##zine
unsuitable
tornadoes
croydon
voss
detachment
##kian
##ands
izzy
doping
sarcastically
dorsal
morphology
ideology
aisles
mahmud
referendum
fredrik
mainline
vowels
aromatic
martyrs
##rling
##hur
surveying
charities
reworked
tensed
economical
striker
estonia
berkshire
47th
lancashire
##lford
512
fated
teased
1954
adler
marta
chopra
##ibar
##vs
reliability
cnn
acronym
anthropological
electrified
1851
##vira
amore
atoll
boyd
dutton
##edd
lodges
homage
##lysis
rao
##nary
kristina
##pani
dobson
estimation
denotes
correlated
flanks
chaplin
ames
bien
royale
justices
vocalists
plush
duval
##ignment
thriller
denomination
discrete
illustrator
vinci
transitioned
zoology
##yin
##onzo
habitats
constraints
geologic
brittany
breton
##systems
additionally
##nya
tracts
##zhou
creeks
varying
triassic
seater
##rok
##500
##cave
welded
brandenburg
mayoral
lithuania
interfaces
422
topographic
hinges
1641
heinz
##eries
##economic
adobe
mongolian
transgender
confluence
motifs
academia
academics
campaigns
furnishings
attendees
##tung
coasts
flowed
##elman
##wski
##inian
playwright
ismail
demonstrators
sufi
advertisements
attends
statutes
##yk
asserting
slovene
##rasia
hertfordshire
##hian
coordinating
alexei
##oder
resurgence
becca
dictatorship
defiant
##gai
dowry
startup
inversion
cantonese
underwood
coiled
tian
sphinx
robotic
incidence
benji
configurations
ipod
similarity
hiatus
bergen
suspiciously
shandong
tiled
solidarity
vishnu
turret
quran
distal
argues
##tative
auckland
ottomans
dvds
multimedia
woolf
djs
##bial
insignia
overgrown
professorship
barnard
##zell
medici
##nb
plunged
##orf
sugarcane
researches
eki
seville
abuses
690
pedestrians
biochemistry
nervously
kirby
inverted
arturo
reunification
##screen
avoidance
shrieked
performs
shrill
shrugs
1644
snarled
fishery
confederation
myles
hui
##hei
##rton
##lkirk
giro
flinders
drummond
##dek
##harat
##icz
m3
##raj
fission
##bled
tilted
hardin
hidalgo
bukit
##52
yarmouth
ibn
internationale
##pala
resolutions
274
latitude
##jer
detachments
cpi
guerrillas
emphasized
echoes
conor
galway
laude
renovations
touchdowns
inline
kyushu
decreasing
fluttered
eroded
equator
##cliffe
##ente
##agh
aquatics
##lding
##tenberg
essendon
##nca
amelie
baha
motorsports
253
##yala
bethel
bosch
accredited
chatham
1730
ferrara
hellenic
hubbard
larsen
landmarks
##ogen
##ytic
##ooped
##bana
veracruz
##tad
traversed
##sily
soundtrack
unease
vocalist
##trick
schoolhouse
memorials
hailed
fey
dani
routinely
##enko
ahmed
gemma
consolidated
nearer
mustered
madeira
##meo
barron
restructuring
wicket
##itical
correspond
vertically
pavel
##lovic
##bson
broncos
relocating
730
taxon
moaned
##sef
##lved
silas
alterations
reviewers
##nsk
howled
sigismund
implemented
inadvertently
josie
inquired
straining
collaborative
interned
langdon
berger
argyll
sutherland
##rred
kobayashi
##hue
restoring
cottages
lehigh
##vyn
promenade
somerville
blanco
hereford
livingston
folly
##inga
benedictine
stamford
€
##hampton
billings
prematurely
als
##west
303
312
316
wilcox
321
323
325
brisbane
##eville
chennai
332
336
339
greensboro
longitude
340
344
mohawk
##41
prevention
##kara
auf
##vres
##icus
≥
##mler
steelers
##isen
dominion
therese
##lez
plc
hubert
silvia
##havan
lucien
##nett
jia
oliveira
mk
belinda
nasser
bobbie
camille
keenan
epstein
cupping
disgusted
advising
advocating
##urance
blindly
##fting
chaired
conferred
coughed
lyricist
exhaled
peeked
flexed
eliot
hospice
hogan
##zman
##erik
##udeau
yerevan
emphasizes
clashes
siena
sienna
jaipur
austrians
rb
tariff
##jian
signage
##rcle
signalling
ramsay
benito
genoa
ineligible
##vara
silva
##lves
silvio
zhao
compute
entourage
mackay
practised
bulletin
hilly
bulge
##vc
ornamental
prelude
witnessing
leto
averaged
krakow
##lby
##talk
gritted
cote
preface
attire
paxton
1882
mansfield
hyderabad
354
##32
412
381
##48
##°
blanchard
390
262
980
clements
safeguard
newtown
donaldson
495
##dley
ymca
audible
625
susquehanna
1922
bce
##ffey
seminary
hobart
seneca
##ives
weber
1870
xx
sachs
640
stade
thoughtfully
intending
##hg
thomson
reuters
hissing
concluding
emigration
resumed
introductions
digitally
remastered
castile
ascot
recognised
toppled
clashed
android
##atz
darmstadt
zionist
exiles
guyana
limerick
trumpeter
##ometric
mingled
sixteenth
drafts
minerva
wetland
318
conceded
amin
pasha
inspecting
commended
mirage
eastman
osborn
archangel
##chus
medicare
chuckles
wembley
pietro
judiciary
gibraltar
##ssee
scandinavian
sergey
ministries
wainwright
prevailed
##game
worsened
reza
syed
detrimental
darlington
stiffened
##nessy
##eyer
perched
##istan
blankly
1900s
##nare
##yal
beatty
##wala
41st
bangor
rca
421
435
43rd
snyder
##furt
motorsport
undeveloped
460
operators
1870s
hardcover
##¾
bowen
robertson
mcdonnell
universidad
##mussen
##umen
##ayan
afb
bombardier
assyrian
1976
regulators
1925
##aer
##sbury
##fm
waller
xp
licenses
patented
copyright
##sko
##bold
1832
1918
managerial
workforce
renamed
interiors
blushed
judd
toured
stephan
##zbek
uzbekistan
immigrated
dunne
codex
inception
wynn
ogden
horizontally
modernized
mitochondrial
1680
cocked
erasmus
##ossa
##zong
nicholls
##kova
clamped
##ywood
conditional
spawning
footing
spartans
daniela
preceded
##kura
mccartney
optics
bandwidth
cringed
toned
##rgeon
paused
vance
excerpt
inaccurate
computational
1896
wheelbase
summarized
onslaught
framework
cory
galicia
##dron
##28
2016
padres
kuala
lumpur
×
403
applicable
quinlan
334
wiley
suffolk
##42
560
1717
standardization
marlins
juniper
earle
rashid
stephane
alton
competed
payne
uniformly
divert
dyer
turbulent
1893
variously
wrestlers
##orestation
##cased
arched
1550
midsummer
##oise
taut
catalan
##bruck
##etta
smithsonian
demonstrates
middleton
commercially
##mum
ulysses
neolithic
bosnian
gazed
enrollment
botswana
engravings
crewe
locomotives
unfolded
coincidentally
gillespie
marshes
azure
empowerment
##gp
##eles
singleton
semifinals
sino
fastened
vertex
56th
##zier
##dington
baronet
knighted
edmond
rotated
verona
chalmers
##yles
terminating
ida
ortiz
squinted
milestone
boyer
enrichment
##khar
surrey
rwanda
hybrids
ecology
breakaway
himalayas
ghana
##gnan
punishments
refurbishment
sanctions
stereotypes
sampson
##drome
acheron
arrivals
norris
##chua
angola
guam
expenditure
##gf
specialization
brewers
giacomo
bitterly
##ross
cinematographer
antoinette
feldman
shards
##hedron
geraldine
josef
adolescence
##cellular
1931
modification
dortmund
essen
dali
precipitation
emitted
##tok
coinage
loyalists
landowner
belarus
##zek
plurality
##58
qc
##bush
##cape
##cana
alfonso
##rgy
282
ncaa
##laus
##inton
##ingham
globally
960
bluegrass
##dion
1646
goodman
bergman
##vitt
##heimer
vaughan
zhejiang
##mori
goldberg
harvested
juris
nawab
##rdon
adjunct
##bourg
radcliffe
sheffield
nestor
1940s
rabbis
astor
blackwell
puebla
##rney
##cote
upgrading
yukon
pune
##zquez
agitation
spatial
hackett
daryl
replied
hannover
captives
rms
goalkeeper
criterion
tolkien
tunisia
scandals
##inking
##rites
incorporation
1650
1857
1861
##lles
malaga
suarez
walters
trieste
1871
goldstein
ardent
##uki
engraver
tuning
##zumi
galician
rodgers
awarding
##egan
guernsey
texans
saxon
punjabi
##berto
westwood
##skie
scarborough
kitchener
##rz
potsdam
269
roofs
620
dubois
•
kato
##omba
1702
uci
##vard
gonzaga
510
1692
purdue
##ostal
smartphone
maddox
224
gma
averaging
##™
usb
355
780
sinai
highlighting
geelong
802
##hler
douglass
870
875
nazareth
baltic
ignacio
respondents
exported
930
wesleyan
utilities
favourites
yeomanry
##ality
lynne
wavelengths
artemis
shrubs
gregorian
bared
protruding
coefficient
kaye
iain
educators
hurley
amara
1773
mobilization
kaufman
##wari
kurdistan
##ogenic
inducted
peng
completes
neighbouring
spitfire
aggregator
##castle
cochran
lucille
sentinel
merton
pba
mendez
whitaker
hadley
netting
lucie
commencing
thessaloniki
##dya
patton
sobs
murmured
forearms
romanesque
##garh
olympia
##lani
##ovo
utrecht
monterrey
##arina
gustavo
organist
castillo
##bh
##cona
arun
m1
barrie
pilasters
′
##kti
##yya
##nath
##nton
messengers
##thorpe
gesturing
bihar
bilbao
##riam
##erman
inaugural
prasad
collin
qatar
famously
enraged
parry
##wes
maynard
johansson
##anov
##guchi
jenks
##kic
##raus
##lynn
##ulton
micah
mandela
gardiner
gough
rahman
##eza
zimmerman
welles
mathews
pascal
##ulus
vladimir
admiralty
prompting
mercantile
##holz
egan
gonzalez
copeland
##elles
166
##vita
collingwood
ciudad
##eux
toulon
jimenez
##ensburg
##36
groningen
granville
hutchinson
296
karlsruhe
##wice
kellogg
lausanne
ljubljana
slovenia
bahrain
##kato
##tov
##viere
ltd
##etano
bounded
##illon
lucknow
softness
symbolism
grimace
##orescence
bassist
elsie
##tyn
##inia
tianjin
tabitha
guthrie
honours
translit
ufc
biomedical
savanna
frances
bellamy
bladed
lashes
blazed
mounts
moderator
parentheses
principally
sato
##otype
pixels
bastion
gerhard
stryker
##kaya
calabria
##eka
##rno
##music
##lston
dazed
debuting
dimitri
mclean
sykes
dismissing
khmer
consisted
leafs
alberto
saxony
fumbled
experimented
maximus
purcell
leung
##etz
##osaurus
clemens
portage
##cheng
##lten
##abia
administratively
prefecture
bournemouth
beaufort
1662
1722
legions
sixties
ratios
1754
lowry
remixes
embroidered
concourse
skyla
furthermore
##isson
##ngen
boilers
tchaikovsky
echoed
aerodrome
impatience
specify
settler
noteworthy
1705
##orus
jaguars
##swick
1838
sociology
turkmenistan
##tries
nfc
tumbling
topography
turrets
axes
ecological
##wani
##avs
headquartered
##chal
functioned
alsace
cyrillic
##oum
oaxaca
sediments
indicative
wry
filmmaking
intrinsic
pulsing
tonga
legislature
cordoba
coloration
dominates
runoff
nwa
laval
1b
aix
186
##stadt
##eborg
##berger
##nagar
broughton
##ija
##orno
##isches
manitoba
padua
anhalt
##ecin
bratislava
augsburg
raja
##kushima
gillian
wexford
##folia
exiting
1796
femme
##lika
denominations
##dara
kosovo
unmistakable
cameroon
nuclei
##hism
jimi
leaped
slovak
slovakia
ringo
peering
furiously
##jak
reigned
collaborated
judgments
1856
##yana
occupations
playstation
fischer
authorship
##lewood
zagreb
##stituting
tobago
##fields
##chment
aims
fein
430
##hay
bethany
kincaid
kade
gupta
mauritius
macedonia
guitars
auspices
interpreting
antilles
##ldon
##rgos
harshly
sneered
chuckled
snuggled
297
gentry
lyndon
bodo
denote
bohemia
1928
##mament
homme
bonaparte
##ocytes
##iface
reductions
displeasure
quivering
stammered
magdalene
fabian
prohibit
parameter
vivo
##kyu
##wled
##lster
subgroup
rosenberg
##alis
##frey
gould
##ulum
duchy
##thus
##physical
wc
classify
##rya
rankin
enamel
condemnation
flopped
implementing
empires
autobiographical
ornate
##alic
periodical
1713
1860s
seamus
directorate
soloists
airfields
cartoonist
jena
putin
##tford
intercity
punta
##zic
aachen
##neuve
##kala
fortifications
stroked
1934
geographical
naga
1827
##holm
uttered
##ccus
mcgill
divisional
canadiens
distributions
rpm
flanked
medial
petitions
##ppet
guangzhou
adoptive
##anta
andres
houghton
##nae
##yria
feminism
##mata
hawker
brackets
seventeenth
compilations
wwe
adelaide
##recht
baden
##riated
knelt
serge
regimental
##eley
##group
trombone
incarnation
slavic
bewildered
corresponded
merrill
expeditions
bromley
variability
withdrew
gujarati
##rage
swansea
regatta
lucha
secession
sheppard
andover
corbett
disadvantaged
##utnant
kristin
layne
##nally
advisers
laurence
caden
championed
flutes
##rley
excavations
dowager
1825
1764
reeve
postgraduate
##llary
forcefully
##ckey
carriages
impoverished
propagation
myanmar
travellers
##uria
farmland
##bane
fortification
henrietta
amazement
##tracted
burgess
query
##uru
melville
1839
1840s
maguire
brahms
francoise
brasil
overcoming
triangles
sabrina
##otho
1625
callum
lough
berman
##entes
brigades
##lto
intensified
##sund
sloop
paced
pastoral
affiliate
kurdish
##enstein
sabah
##enary
chiba
266
transvaal
tokugawa
ethernet
##puri
montevideo
gaddafi
bishopric
reactive
aforementioned
##gawa
selects
custer
thirteenth
gaza
transformations
yucatan
nationalism
shrines
elites
rosario
semitic
housemates
subdistrict
overtook
shaded
modernism
depicts
compiler
percussion
continuation
uppsala
darkened
playable
archipelago
hackney
collaborations
##tructing
echoing
##iano
yusuf
##ructured
automation
##kovsky
crouched
budgets
designation
landau
konstantin
elisa
kiara
brno
manifested
rana
faintly
successors
littered
grasped
##phate
enveloped
robyn
felicia
recapture
##efined
claudius
kylie
visuals
505
pbs
servicemen
##edly
blurted
mariano
##orra
distinguishes
noting
##rigues
africans
manufactures
vibrated
churning
##uously
princely
barrio
##chenko
##tius
strained
favoured
##typical
elliptic
oldies
serials
shadowed
algiers
revisited
seton
##runa
stanza
##cytes
##ivision
esa
indigo
wolverhampton
piloted
sous
taxation
pursuits
transatlantic
innsbruck
kb
reece
fielded
oxfordshire
1760
alternately
dorsey
##cao
##aar
pyrenees
thumped
delaying
tempest
culminated
##anian
archived
##stead
relinquished
##oue
dundee
##pina
hammersmith
reapers
guillermo
tobias
nagasaki
##qing
##oux
malay
winger
##abad
quarterfinal
meng
1836
congregations
incumbent
bryn
##enas
fabio
##planes
##ovsky
horst
reservoirs
1756
##ooping
semifinal
attribute
earls
sousa
##pts
ict
microscopy
fleetwood
##vus
terraces
primaries
helplessly
##miya
mathias
##olf
##parts
1853
##bha
1798
1878
1887
grafton
weakly
equivalence
bundled
republics
##nir
##jos
embarked
accessibility
yates
distributing
organising
##leaf
middlesex
##jk
talmud
afc
redesign
modernization
southend
livingstone
##bner
##ouk
informally
apical
parapet
scents
staffordshire
recalling
##strel
##dened
quarterfinals
proliferation
1885
vols
##udged
examinations
scrolling
lissa
jody
moniker
governmental
saharan
anglia
darted
disused
wrenched
nottinghamshire
qualifier
curving
gliding
bengals
emilia
1704
infringement
leger
##nah
lettering
##kker
accolades
##laise
dissipated
huron
##shin
dioceses
axial
naturalized
eligibility
guerre
##encia
groans
chapels
manson
parochial
darting
anxiously
##morphic
islamabad
garnered
lynx
schumacher
premiership
strengthened
bjorn
huffington
##urus
gunners
rte
##bedo
locality
moldova
##yama
intercontinental
##enay
weekday
helens
pickering
quaker
mx
accession
icelandic
orchestrated
##tosis
showcases
##iciencies
introductory
pdf
##channel
glamorgan
abolition
principality
forested
favorably
retrospective
##mani
##ghan
shenzhen
##rao
1890
1872
aleksandr
##kari
239
##linson
matthias
marek
mohammad
hodgson
tracey
tatum
optimization
consular
guise
layered
utilized
legislator
°c
stephenson
reacher
1620
##dana
lowlands
fledgling
##wara
##vsky
mcgrath
tasmania
##vna
ordination
##merie
cumbria
supplemented
1794
facilitates
taxonomy
classification
hierarchical
fc
differentiated
contexts
##sation
##agawa
jennie
##inae
##ylus
portrayal
visibly
substitutes
centred
archdeacon
teatro
massimo
disbelief
knowles
hamish
natalia
minh
moshe
tobin
contributes
reintroduced
darryl
presley
clench
737
spd
acclaim
canons
1837
##rell
erskine
reeves
directorial
contentious
ions
conversely
remix
##arians
##rata
deafening
museo
logistical
intersects
shankar
steiner
##oulos
classifications
furrowed
##ioms
fielding
tko
deutsche
economists
gingerly
mistakenly
appleton
muttering
pausing
jens
226
trondheim
southward
##inski
nguyen
impatiently
salamanca
externally
secondly
vigorously
caucus
explicitly
geoff
ubiquitous
hurled
receivers
descends
##riders
miscellaneous
##oud
urdu
soto
breaststroke
uttar
pradesh
osman
hurriedly
epoch
transformers
recounts
backstroke
clapped
##imov
twentieth
comprise
embodied
##kha
emission
waterford
eastward
nairobi
weathered
appropriated
isil
panchayat
commissioning
abrams
devotees
slabs
uae
##schen
##filtration
substituted
##dorff
##cultural
2000s
organizes
meiji
frs
1842
danzig
subtropical
cheshire
prominently
2d
##nham
marquess
silesia
revision
songwriting
replies
efficacy
dhabi
polled
ajax
1766
##400
derivation
##pods
roofed
kimberley
reforming
##tsky
grossing
mongols
synonym
gustave
guzman
stifled
verve
##rana
croix
pedersen
feasibility
herrera
mma
mellon
commissions
terence
augmented
charlton
headwaters
itv
marquette
integrating
universally
interventions
conversions
renaming
constraint
downloadable
decca
moritz
##lberg
strikeouts
jordanian
isbn
constabulary
malacca
junta
lineman
##nent
shay
shivered
whig
##anna
defunct
##hly
aegean
symphonies
gloucestershire
spectroscopy
qualification
archway
##rsten
##ticus
##rvis
##omorphic
harta
insistence
##lete
warrington
dismay
councils
lowland
##elled
tributaries
1733
tiberius
jacobite
steamboat
noticeably
integer
##anum
navarre
wikipedia
rebounds
patrice
u2
1835
astros
siegel
subdivision
edouard
hailey
dockyard
##sden
sikh
##idae
competes
±
neue
accreditation
}
preferences
progressively
192
successive
philanthropy
pulsed
successively
subsequently
ghent
grins
eastenders
1944
mariners
##venor
keyboards
modular
mayfair
tyrone
##tidae
fixture
saxophonist
comprising
theorist
exemplified
biomass
##lists
mutter
maori
hydroelectric
constituted
##itha
##hane
beaux
synthesizer
comparisons
solids
##hosh
epilogue
authoritative
lurched
metadata
fujian
curate
1697
##jected
ezekiel
##kia
##ains
##lism
batsman
cantor
periodically
idf
jonny
tasha
rhineland
roared
gaa
kinship
dimly
insurgency
southport
aristocratic
##rzburg
antennas
elects
elisabeth
sculptors
dso
austro
reclamation
lgbt
csa
1643
inaugurated
endorsed
tumbled
belarusian
hummed
ronin
glanced
##qvist
untitled
deepened
arrondissement
eurasian
exchequer
##chuk
265
labourers
geschichte
kunst
middlesbrough
sunderland
entrepreneurship
formulation
matrices
leighton
runes
1865
classed
##itia
mfa
cognition
etymology
superseded
##endez
gulped
1884
narration
modulation
goddard
oxidation
resided
suffix
[...]
